{
  "version": "1.0",
  "truncation": null,
  "padding": null,
  "added_tokens": [
    {
      "id": 0,
      "content": "[PAD]",
      "single_word": false,
      "lstrip": false,
      "rstrip": false,
      "normalized": false,
      "special": true
    },
    {
      "id": 1,
      "content": "[UNK]",
      "single_word": false,
      "lstrip": false,
      "rstrip": false,
      "normalized": false,
      "special": true
    },
    {
      "id": 2,
      "content": "[CLS]",
      "single_word": false,
      "lstrip": false,
      "rstrip": false,
      "normalized": false,
      "special": true
    },
    {
      "id": 3,
      "content": "[SEP]",
      "single_word": false,
      "lstrip": false,
      "rstrip": false,
      "normalized": false,
      "special": true
    },
    {
      "id": 4,
      "content": "[MASK]",
      "single_word": false,
      "lstrip": false,
      "rstrip": false,
      "normalized": false,
      "special": true
    },
    {
      "id": 5,
      "content": "[USER]",
      "single_word": false,
      "lstrip": false,
      "rstrip": false,
      "normalized": false,
      "special": true
    },
    {
      "id": 6,
      "content": "[ASSISTANT]",
      "single_word": false,
      "lstrip": false,
      "rstrip": false,
      "normalized": false,
      "special": true
    },
    {
      "id": 7,
      "content": "[CONTEXT]",
      "single_word": false,
      "lstrip": false,
      "rstrip": false,
      "normalized": false,
      "special": true
    },
    {
      "id": 8,
      "content": "[OP]",
      "single_word": false,
      "lstrip": false,
      "rstrip": false,
      "normalized": false,
      "special": true
    },
    {
      "id": 9,
      "content": "[MODEL]",
      "single_word": false,
      "lstrip": false,
      "rstrip": false,
      "normalized": false,
      "special": true
    }
  ],
  "normalizer": null,
  "pre_tokenizer": {
    "type": "ByteLevel",
    "add_prefix_space": false,
    "trim_offsets": true,
    "use_regex": true
  },
  "post_processor": null,
  "decoder": null,
  "model": {
    "type": "BPE",
    "dropout": null,
    "unk_token": null,
    "continuing_subword_prefix": null,
    "end_of_word_suffix": null,
    "fuse_unk": false,
    "byte_fallback": false,
    "ignore_merges": false,
    "vocab": {
      "[PAD]": 0,
      "[UNK]": 1,
      "[CLS]": 2,
      "[SEP]": 3,
      "[MASK]": 4,
      "[USER]": 5,
      "[ASSISTANT]": 6,
      "[CONTEXT]": 7,
      "[OP]": 8,
      "[MODEL]": 9,
      "!": 10,
      "\"": 11,
      "#": 12,
      "$": 13,
      "%": 14,
      "&": 15,
      "'": 16,
      "(": 17,
      ")": 18,
      "*": 19,
      "+": 20,
      ",": 21,
      "-": 22,
      ".": 23,
      "/": 24,
      "0": 25,
      "1": 26,
      "2": 27,
      "3": 28,
      "4": 29,
      "5": 30,
      "6": 31,
      "7": 32,
      "8": 33,
      "9": 34,
      ":": 35,
      ";": 36,
      "<": 37,
      "=": 38,
      ">": 39,
      "?": 40,
      "@": 41,
      "A": 42,
      "B": 43,
      "C": 44,
      "D": 45,
      "E": 46,
      "F": 47,
      "G": 48,
      "H": 49,
      "I": 50,
      "J": 51,
      "K": 52,
      "L": 53,
      "M": 54,
      "N": 55,
      "O": 56,
      "P": 57,
      "Q": 58,
      "R": 59,
      "S": 60,
      "T": 61,
      "U": 62,
      "V": 63,
      "W": 64,
      "X": 65,
      "Y": 66,
      "Z": 67,
      "[": 68,
      "\\": 69,
      "]": 70,
      "^": 71,
      "_": 72,
      "`": 73,
      "a": 74,
      "b": 75,
      "c": 76,
      "d": 77,
      "e": 78,
      "f": 79,
      "g": 80,
      "h": 81,
      "i": 82,
      "j": 83,
      "k": 84,
      "l": 85,
      "m": 86,
      "n": 87,
      "o": 88,
      "p": 89,
      "q": 90,
      "r": 91,
      "s": 92,
      "t": 93,
      "u": 94,
      "v": 95,
      "w": 96,
      "x": 97,
      "y": 98,
      "z": 99,
      "{": 100,
      "|": 101,
      "}": 102,
      "~": 103,
      "¡": 104,
      "¢": 105,
      "£": 106,
      "¤": 107,
      "¥": 108,
      "¦": 109,
      "§": 110,
      "¨": 111,
      "©": 112,
      "ª": 113,
      "«": 114,
      "¬": 115,
      "®": 116,
      "¯": 117,
      "°": 118,
      "±": 119,
      "²": 120,
      "³": 121,
      "´": 122,
      "µ": 123,
      "¶": 124,
      "·": 125,
      "¸": 126,
      "¹": 127,
      "º": 128,
      "»": 129,
      "¼": 130,
      "½": 131,
      "¾": 132,
      "¿": 133,
      "Â": 134,
      "Ã": 135,
      "Ä": 136,
      "Î": 137,
      "Ï": 138,
      "à": 139,
      "â": 140,
      "ã": 141,
      "î": 142,
      "ï": 143,
      "ð": 144,
      "ĉ": 145,
      "Ċ": 146,
      "ě": 147,
      "Ġ": 148,
      "Ģ": 149,
      "ģ": 150,
      "Ĥ": 151,
      "ĥ": 152,
      "Ħ": 153,
      "ħ": 154,
      "Ĩ": 155,
      "ĩ": 156,
      "Ī": 157,
      "ī": 158,
      "Ĭ": 159,
      "ĭ": 160,
      "Į": 161,
      "į": 162,
      "İ": 163,
      "ı": 164,
      "Ĳ": 165,
      "ĳ": 166,
      "Ĵ": 167,
      "ĵ": 168,
      "Ķ": 169,
      "ķ": 170,
      "ĸ": 171,
      "Ĺ": 172,
      "ĺ": 173,
      "Ļ": 174,
      "ļ": 175,
      "Ľ": 176,
      "ľ": 177,
      "Ŀ": 178,
      "ŀ": 179,
      "Ł": 180,
      "ł": 181,
      "Ń": 182,
      "ĠĠ": 183,
      "Ġt": 184,
      "in": 185,
      "he": 186,
      "Ġa": 187,
      "re": 188,
      "Ġthe": 189,
      "ĠĠĠĠ": 190,
      "on": 191,
      "Ġs": 192,
      "er": 193,
      "at": 194,
      "Ġc": 195,
      "en": 196,
      "st": 197,
      "or": 198,
      "it": 199,
      "Ġf": 200,
      "ed": 201,
      "ing": 202,
      "nd": 203,
      "le": 204,
      "Ġw": 205,
      "al": 206,
      "Ġp": 207,
      "es": 208,
      "âĢ": 209,
      "is": 210,
      "Ġb": 211,
      "Ġto": 212,
      "Ġm": 213,
      "ro": 214,
      "ion": 215,
      "ar": 216,
      "Ġ`": 217,
      "de": 218,
      "ct": 219,
      "Ġre": 220,
      "ĠĠĠĠĠĠĠĠ": 221,
      "an": 222,
      "Ġl": 223,
      "Ġn": 224,
      "ut": 225,
      "Ġin": 226,
      "ent": 227,
      "Ġth": 228,
      "Ġand": 229,
      "Ġ(": 230,
      "ĠI": 231,
      "Ġo": 232,
      "ll": 233,
      "Ġe": 234,
      "as": 235,
      "ĠĠĠ": 236,
      "ic": 237,
      "00": 238,
      "un": 239,
      "\\\"": 240,
      "Ġd": 241,
      "us": 242,
      "om": 243,
      "Ġst": 244,
      "et": 245,
      "im": 246,
      "ac": 247,
      "ho": 248,
      "ad": 249,
      "ĠT": 250,
      "Ġ=": 251,
      "--": 252,
      "Ġis": 253,
      "Ġcon": 254,
      "ly": 255,
      "ve": 256,
      "Ġthat": 257,
      "ur": 258,
      "Ġne": 259,
      "ol": 260,
      "ig": 261,
      ";\\": 262,
      "Ġg": 263,
      "pt": 264,
      "am": 265,
      "âĶ": 266,
      "ver": 267,
      "est": 268,
      "if": 269,
      "lo": 270,
      "Ġr": 271,
      "ate": 272,
      "th": 273,
      "ul": 274,
      "ep": 275,
      "ode": 276,
      "se": 277,
      "âĶĢ": 278,
      "ch": 279,
      "Ġ\"": 280,
      "Ġfor": 281,
      "âĶĢâĶĢ": 282,
      "ation": 283,
      "all": 284,
      "Ġex": 285,
      "Ġlo": 286,
      "Ġof": 287,
      "ri": 288,
      "Ġh": 289,
      "il": 290,
      "ĠĠĠĠĠĠĠĠĠĠĠĠĠĠĠĠ": 291,
      "Ġwit": 292,
      "ag": 293,
      "and": 294,
      "Ġ1": 295,
      "ke": 296,
      "Ġfi": 297,
      "âĢĻ": 298,
      "ain": 299,
      "âĢĳ": 300,
      "Ġ-": 301,
      "pe": 302,
      "ill": 303,
      "ow": 304,
      "Ġwith": 305,
      "Ġbe": 306,
      "id": 307,
      "Ġit": 308,
      "ap": 309,
      "ot": 310,
      "Ġcom": 311,
      "ce": 312,
      "ĠâĢ": 313,
      "int": 314,
      "ck": 315,
      "pl": 316,
      "xt": 317,
      "Ġus": 318,
      "to": 319,
      "ay": 320,
      "ction": 321,
      "Ġpro": 322,
      "ĠThe": 323,
      "ess": 324,
      "Ġon": 325,
      "Ġan": 326,
      "ist": 327,
      "==": 328,
      "ter": 329,
      "put": 330,
      ");\\": 331,
      "Ġ0": 332,
      "**": 333,
      "Ġde": 334,
      "ment": 335,
      "res": 336,
      "Ġ{": 337,
      "ht": 338,
      "up": 339,
      "Ġv": 340,
      "ine": 341,
      "Ġse": 342,
      "qu": 343,
      "\":": 344,
      "te": 345,
      ").": 346,
      "ort": 347,
      "Ġ2": 348,
      "py": 349,
      "ĠĠĠĠĠĠĠ": 350,
      "Ġsho": 351,
      "und": 352,
      "----": 353,
      "Ġrun": 354,
      "ack": 355,
      "ink": 356,
      "Ġas": 357,
      "uld": 358,
      "Ġfile": 359,
      "Ġtr": 360,
      "age": 361,
      "imp": 362,
      "Ġor": 363,
      "Ġwill": 364,
      "po": 365,
      "</": 366,
      "ath": 367,
      "Ġsc": 368,
      "Ġtest": 369,
      "ff": 370,
      "ive": 371,
      "ure": 372,
      "ir": 373,
      "ore": 374,
      "ight": 375,
      "âĶĢâĶĢâĶĢâĶĢ": 376,
      "Ġal": 377,
      "ers": 378,
      "rom": 379,
      "ab": 380,
      "Ġ}": 381,
      "Ġneed": 382,
      "Ġcall": 383,
      "od": 384,
      "`,": 385,
      "ace": 386,
      "end": 387,
      "step": 388,
      "urn": 389,
      "cl": 390,
      "mand": 391,
      "um": 392,
      "ts": 393,
      "Ġthis": 394,
      "ame": 395,
      "ĠS": 396,
      "ens": 397,
      "Ġwh": 398,
      "act": 399,
      "ue": 400,
      "con": 401,
      "odel": 402,
      "think": 403,
      "ĠA": 404,
      "Ġnew": 405,
      "Ġ\\\"": 406,
      "Ġad": 407,
      "ĠĠĠĠĠ": 408,
      "tr": 409,
      "ust": 410,
      "Ġ'": 411,
      "her": 412,
      "Ġconst": 413,
      "ĠC": 414,
      "Ġch": 415,
      "``": 416,
      "`.": 417,
      "),": 418,
      "ask": 419,
      "ript": 420,
      "Ġme": 421,
      "js": 422,
      "0000": 423,
      "ren": 424,
      ")\\": 425,
      "ew": 426,
      "Ġshould": 427,
      "30": 428,
      "ite": 429,
      "Ġlog": 430,
      "Ġif": 431,
      "Ġ/": 432,
      "ail": 433,
      "ĠTh": 434,
      "Ġat": 435,
      "ĠĠĠĠĠĠĠĠĠĠĠĠĠĠĠĠĠĠĠĠĠĠĠĠĠĠĠĠĠĠĠĠ": 436,
      "iz": 437,
      "Ġout": 438,
      "Ġres": 439,
      "com": 440,
      "heck": 441,
      "out": 442,
      "ass": 443,
      "op": 444,
      "ire": 445,
      "iv": 446,
      "Ġj": 447,
      "ug": 448,
      "ĠB": 449,
      "ard": 450,
      "NT": 451,
      "âĢĿ": 452,
      "ect": 453,
      "ile": 454,
      "Ġdo": 455,
      "Ġcan": 456,
      "pp": 457,
      "Ġso": 458,
      "gen": 459,
      "ang": 460,
      "ĠâĢľ": 461,
      "ally": 462,
      "Ġuser": 463,
      "Ġwhe": 464,
      "ud": 465,
      "el": 466,
      "Ġtool": 467,
      "Ġhe": 468,
      "ĠP": 469,
      "ring": 470,
      "Ġ*": 471,
      "Ġcont": 472,
      "round": 473,
      "unction": 474,
      "art": 475,
      "Ġ+": 476,
      "ss": 477,
      "ant": 478,
      "orm": 479,
      "ĠM": 480,
      "Ġpl": 481,
      "Ġany": 482,
      "tool": 483,
      "\",": 484,
      "Ġup": 485,
      "ated": 486,
      "Ġconf": 487,
      "Ġare": 488,
      "Ġret": 489,
      "\\\\": 490,
      "so": 491,
      "Ġver": 492,
      "ub": 493,
      "em": 494,
      "Ġimp": 495,
      "Ġstep": 496,
      "Ġadd": 497,
      "âĢ¯": 498,
      "vi": 499,
      "per": 500,
      "Ġle": 501,
      "yt": 502,
      "Ġ|": 503,
      "one": 504,
      "lock": 505,
      "ash": 506,
      "Ġfrom": 507,
      "Ġmodel": 508,
      "SS": 509,
      "Ġcommand": 510,
      "ull": 511,
      "Ġco": 512,
      "Ġ3": 513,
      "ST": 514,
      "Ġcode": 515,
      "ĠR": 516,
      "Ġma": 517,
      "ave": 518,
      "ple": 519,
      "Ġnext": 520,
      "Ġ{\\": 521,
      "Ġreturn": 522,
      "rc": 523,
      ",\\": 524,
      "apt": 525,
      "ich": 526,
      "Ġ<": 527,
      "aining": 528,
      "ĠThis": 529,
      "ory": 530,
      "Ġbut": 531,
      "ase": 532,
      "Ġ5": 533,
      "ime": 534,
      "====": 535,
      "fter": 536,
      "()": 537,
      "20": 538,
      "li": 539,
      "ome": 540,
      "ser": 541,
      "Ġcheck": 542,
      "get": 543,
      "Ġset": 544,
      "Ġwor": 545,
      "test": 546,
      "min": 547,
      "rent": 548,
      "fore": 549,
      "ast": 550,
      "ĠN": 551,
      "ree": 552,
      "read": 553,
      "ror": 554,
      "Ġoutput": 555,
      "Ġnot": 556,
      "Ġy": 557,
      "ther": 558,
      "atch": 559,
      "cess": 560,
      "--------": 561,
      "ĠâĢĶ": 562,
      "able": 563,
      "ok": 564,
      "ane": 565,
      "Ġinput": 566,
      "ild": 567,
      "ult": 568,
      "esc": 569,
      "ext": 570,
      "âĶĢâĶĢâĶĢâĶĢâĶĢâĶĢâĶĢâĶĢ": 571,
      "ĠG": 572,
      "ific": 573,
      "ule": 574,
      "hos": 575,
      "place": 576,
      "={": 577,
      "Ġjust": 578,
      "Ġke": 579,
      "STA": 580,
      "ythos": 581,
      "Ġwe": 582,
      "Ġpre": 583,
      "Ġ4": 584,
      "ĠU": 585,
      "ASS": 586,
      "ition": 587,
      "Ġfunction": 588,
      "enc": 589,
      "Ġpo": 590,
      "('": 591,
      "ity": 592,
      "form": 593,
      "Ġed": 594,
      "ach": 595,
      "ject": 596,
      "ide": 597,
      "Ġthen": 598,
      "ĠE": 599,
      ":\\": 600,
      "use": 601,
      "Ġ(`": 602,
      "ĠF": 603,
      "aw": 604,
      "fin": 605,
      "Ġline": 606,
      "ASSI": 607,
      "STANT": 608,
      "ASSISTANT": 609,
      "Ġback": 610,
      "..": 611,
      "ata": 612,
      "Ġall": 613,
      "',": 614,
      ");": 615,
      "ies": 616,
      "Ġser": 617,
      "Ġ}\\": 618,
      "Ġag": 619,
      "Ġrec": 620,
      "=\\\"": 621,
      "Ġby": 622,
      "ĠĠĠĠĠĠĠĠĠĠĠ": 623,
      "ary": 624,
      "Ġedit": 625,
      "Ġnow": 626,
      "home": 627,
      "ex": 628,
      "task": 629,
      "Ġwhich": 630,
      "Ġapp": 631,
      "Ġblock": 632,
      "ify": 633,
      "ec": 634,
      "Ġqu": 635,
      "pect": 636,
      "Ġwork": 637,
      "mpt": 638,
      "ype": 639,
      "Ġper": 640,
      "Ġ[": 641,
      "Ġchang": 642,
      "ind": 643,
      "The": 644,
      "```": 645,
      "irect": 646,
      "76": 647,
      "Ġlogic": 648,
      "Ġmod": 649,
      "ize": 650,
      "file": 651,
      "ru": 652,
      "Ġcl": 653,
      "ude": 654,
      "Ġsu": 655,
      "lane": 656,
      "ĠBash": 657,
      "={\"": 658,
      "ning": 659,
      "Ġalso": 660,
      "bu": 661,
      "ĠH": 662,
      "Ġcur": 663,
      "av": 664,
      "lint": 665,
      "ph": 666,
      "md": 667,
      "ready": 668,
      "Ġexact": 669,
      "Ġiss": 670,
      "Ġpar": 671,
      "ip": 672,
      "Ġli": 673,
      "ents": 674,
      "Ġsh": 675,
      "essage": 676,
      "Ġun": 677,
      "text": 678,
      "hed": 679,
      "Ġover": 680,
      "ign": 681,
      "Th": 682,
      "run": 683,
      "Ġread": 684,
      "ark": 685,
      "ait": 686,
      "string": 687,
      "000": 688,
      "Ġro": 689,
      "ise": 690,
      "fe": 691,
      "port": 692,
      "ld": 693,
      "Ġent": 694,
      "Ġalready": 695,
      "ĠW": 696,
      "Ġk": 697,
      "ans": 698,
      "Ġdirect": 699,
      "ument": 700,
      "Ġafter": 701,
      "Ġ**": 702,
      "error": 703,
      "Ġno": 704,
      "Ġrequ": 705,
      "Ġ&": 706,
      "oc": 707,
      "ry": 708,
      "Ġscript": 709,
      "set": 710,
      "ma": 711,
      "path": 712,
      "Ġlike": 713,
      "lement": 714,
      "line": 715,
      "px": 716,
      "ER": 717,
      "fig": 718,
      "ines": 719,
      "Ġhave": 720,
      "escript": 721,
      "command": 722,
      "Ġlist": 723,
      "60": 724,
      "\"}": 725,
      "ord": 726,
      "red": 727,
      "pro": 728,
      "Ġtests": 729,
      "pos": 730,
      "Ġen": 731,
      "ick": 732,
      "imit": 733,
      "Ġfin": 734,
      "ress": 735,
      "escription": 736,
      "mo": 737,
      "Ġdoc": 738,
      "we": 739,
      "Ġbo": 740,
      "ĠâĢĵ": 741,
      "Ġcle": 742,
      "arch": 743,
      "Ġtask": 744,
      "irm": 745,
      "ĠD": 746,
      "Ġvi": 747,
      "Ġupd": 748,
      "rep": 749,
      "pec": 750,
      "point": 751,
      "ĊĠ": 752,
      "Ġexist": 753,
      "alse": 754,
      "Ġbu": 755,
      "Ġhand": 756,
      "Ġcurrent": 757,
      "Ġonly": 758,
      "pon": 759,
      ">\\": 760,
      "ugh": 761,
      "Ġloop": 762,
      "Ġ&&": 763,
      "Ġconfirm": 764,
      "Ġab": 765,
      "ification": 766,
      "Ġact": 767,
      ":**": 768,
      "rop": 769,
      "ener": 770,
      "ting": 771,
      "hes": 772,
      "atus": 773,
      "Ġimport": 774,
      "Ġac": 775,
      "ied": 776,
      "log": 777,
      "Ġinst": 778,
      "Ġstate": 779,
      "Ġits": 780,
      "ini": 781,
      "ground": 782,
      "Ġerror": 783,
      "`)": 784,
      "lf": 785,
      "Ġho": 786,
      "tm": 787,
      "Ġsp": 788,
      "Ġfiles": 789,
      "Ġissue": 790,
      "Ġmo": 791,
      "Ġeach": 792,
      "tent": 793,
      "Ġsy": 794,
      "ates": 795,
      "Ġar": 796,
      "rint": 797,
      "dex": 798,
      "ca": 799,
      "Ġsee": 800,
      "7630": 801,
      "Ġwas": 802,
      "ial": 803,
      "Ġserver": 804,
      "00007630": 805,
      "ession": 806,
      "Ġstill": 807,
      "Ġtraining": 808,
      "right": 809,
      "the": 810,
      "Ġcre": 811,
      "Ġuse": 812,
      "Ġfail": 813,
      "val": 814,
      "sp": 815,
      "Ġhead": 816,
      "Ġwhen": 817,
      "Ġlines": 818,
      "ĠL": 819,
      ".\\": 820,
      "app": 821,
      "Ġshow": 822,
      "old": 823,
      "Ġdata": 824,
      "00008": 825,
      "aper": 826,
      "Ġpass": 827,
      "ĠĊ": 828,
      "Ġvar": 829,
      "Ġconfig": 830,
      "mit": 831,
      "'s": 832,
      "Ġbefore": 833,
      "Ġwr": 834,
      "unt": 835,
      "back": 836,
      "RE": 837,
      "io": 838,
      "cre": 839,
      "Mini": 840,
      "play": 841,
      "Ġfull": 842,
      "ues": 843,
      "ice": 844,
      "Ġwhat": 845,
      "ken": 846,
      "Ġstring": 847,
      "thon": 848,
      "lect": 849,
      "ythosMini": 850,
      "Ġfix": 851,
      "Ġcor": 852,
      "cur": 853,
      "\\\",": 854,
      "ĠĠĠĠĠĠĠĠĠĠĠĠĠĠĠĠĠĠĠĠĠĠĠĠĠĠĠĠĠĠĠĠĠĠĠĠĠĠĠĠĠĠĠĠĠĠĠĠĠĠĠĠĠĠĠĠĠĠĠĠĠĠĠĠ": 855,
      "alph": 856,
      "low": 857,
      "ĠUI": 858,
      "Ġrend": 859,
      "olor": 860,
      "Ġear": 861,
      "bo": 862,
      "own": 863,
      "12": 864,
      "ruct": 865,
      "Ġeff": 866,
      "ON": 867,
      "Ġgive": 868,
      "âĸ": 869,
      "ef": 870,
      "Ġpi": 871,
      "Ġint": 872,
      "Ġfir": 873,
      "Ġpath": 874,
      "co": 875,
      "Ġfirst": 876,
      "Ġval": 877,
      "lier": 878,
      "========": 879,
      "du": 880,
      "Ġcapt": 881,
      "Ġstart": 882,
      "Ġtext": 883,
      "10": 884,
      "view": 885,
      "src": 886,
      "(\\\"": 887,
      "Ġop": 888,
      "Ġfalse": 889,
      "ages": 890,
      "ak": 891,
      "be": 892,
      "ual": 893,
      "yle": 894,
      "ge": 895,
      "Ġgener": 896,
      "ecut": 897,
      "Ġincl": 898,
      "Ġhas": 899,
      "clip": 900,
      "âĸĪ": 901,
      "Ġtime": 902,
      "Ġinto": 903,
      "load": 904,
      "Ġother": 905,
      "ĠO": 906,
      "ps": 907,
      "Ġmake": 908,
      "ib": 909,
      "Al": 910,
      "iss": 911,
      "Ġund": 912,
      "âĸĪâĸĪ": 913,
      "Ġ=>": 914,
      "Ġdis": 915,
      "ater": 916,
      "Ġchanges": 917,
      "Ġ6": 918,
      "aps": 919,
      "Ġ--": 920,
      "orch": 921,
      "//": 922,
      "ead": 923,
      "rect": 924,
      "len": 925,
      "model": 926,
      "cal": 927,
      "TM": 928,
      "aude": 929,
      "Ġone": 930,
      "Ġclass": 931,
      "ced": 932,
      "very": 933,
      "Ġ8": 934,
      "Ġthere": 935,
      "Ġens": 936,
      "ĠâĶ": 937,
      ".,": 938,
      "buff": 939,
      "Ġwhere": 940,
      "json": 941,
      "LI": 942,
      "25": 943,
      "ted": 944,
      "Thus": 945,
      "tmp": 946,
      "ous": 947,
      "Ġkeep": 948,
      "amet": 949,
      "aperclip": 950,
      "ures": 951,
      "umm": 952,
      "ĠMath": 953,
      "replace": 954,
      "arget": 955,
      "Ġend": 956,
      "Ġinter": 957,
      "new": 958,
      "ĠJ": 959,
      "Alright": 960,
      "ance": 961,
      "Ġfo": 962,
      "ds": 963,
      "Ġprocess": 964,
      "apter": 965,
      "Ġlet": 966,
      "Ġdocument": 967,
      "Ġearlier": 968,
      "ually": 969,
      "Ġruns": 970,
      "${": 971,
      "St": 972,
      "no": 973,
      "Ġyo": 974,
      "ont": 975,
      "ating": 976,
      "config": 977,
      "Ġbackground": 978,
      "Ġdefin": 979,
      "Ġimplement": 980,
      "ward": 981,
      "MythosMini": 982,
      "ĊĠĠĠ": 983,
      "name": 984,
      "Ġmessage": 985,
      "Ġcorrect": 986,
      "ha": 987,
      "Ġtho": 988,
      "Ġcontain": 989,
      "wo": 990,
      "gr": 991,
      "Ġaction": 992,
      "Ġcomple": 993,
      "Ġlook": 994,
      "Ġ9": 995,
      "Ġ//": 996,
      "Ġ===": 997,
      "__": 998,
      "Ġins": 999,
      "Ġunder": 1000,
      "thing": 1001,
      "Ġreplace": 1002,
      "Ġspec": 1003,
      "ceed": 1004,
      "ence": 1005,
      "Ġdef": 1006,
      "'ve": 1007,
      "}\\": 1008,
      "Ġkey": 1009,
      "row": 1010,
      "],": 1011,
      "ions": 1012,
      "âĶĢâĶĢâĶĢâĶĢâĶĢâĶĢâĶĢâĶĢâĶĢâĶĢâĶĢâĶĢâĶĢâĶĢâĶĢâĶĢ": 1013,
      "ong": 1014,
      "50": 1015,
      "reebuff": 1016,
      "ified": 1017,
      "Ġsub": 1018,
      "Ġverify": 1019,
      "Ġthem": 1020,
      "PI": 1021,
      "mini": 1022,
      "hout": 1023,
      "Ġcapture": 1024,
      "ft": 1025,
      "Ġlogical": 1026,
      "Ġ>": 1027,
      "Ġprompt": 1028,
      "Ġel": 1029,
      "Ġprint": 1030,
      "ki": 1031,
      "ĊĠĠ": 1032,
      "Ġrequest": 1033,
      "----------------": 1034,
      "time": 1035,
      "Ġgrep": 1036,
      "gth": 1037,
      "add": 1038,
      "udio": 1039,
      "Ġap": 1040,
      "wait": 1041,
      "ĠâĶĤ": 1042,
      "hot": 1043,
      "ĠThat": 1044,
      "roq": 1045,
      "Ġ.": 1046,
      "'t": 1047,
      "Ġagent": 1048,
      "Ġid": 1049,
      "plic": 1050,
      "cause": 1051,
      "description": 1052,
      "Ġfl": 1053,
      "Ġtwo": 1054,
      "Ġadded": 1055,
      "Ġbecause": 1056,
      "Now": 1057,
      "Ġsuc": 1058,
      "Ġsession": 1059,
      "Ġbl": 1060,
      "Ġ->": 1061,
      "for": 1062,
      "ches": 1063,
      "ations": 1064,
      "Ġbuild": 1065,
      "index": 1066,
      "Ġrecent": 1067,
      "ults": 1068,
      "atic": 1069,
      "Ġpres": 1070,
      "par": 1071,
      "ĠNone": 1072,
      "div": 1073,
      "35": 1074,
      "riate": 1075,
      "Ġjo": 1076,
      "Ġapprop": 1077,
      "Ġappropriate": 1078,
      "dit": 1079,
      "umb": 1080,
      "Ġpoint": 1081,
      "vent": 1082,
      "Ġexpect": 1083,
      "Ġthese": 1084,
      "Ġthey": 1085,
      "glint": 1086,
      "mythos": 1087,
      "now": 1088,
      "Ġexisting": 1089,
      "Con": 1090,
      "vel": 1091,
      "Ġaut": 1092,
      "mark": 1093,
      "Ġcommit": 1094,
      "const": 1095,
      "Ġabout": 1096,
      "sert": 1097,
      "function": 1098,
      "mythosmini": 1099,
      "check": 1100,
      "Ġgr": 1101,
      "Ġcolor": 1102,
      "Ġthose": 1103,
      "Ġim": 1104,
      "Ġevery": 1105,
      "oal": 1106,
      "arg": 1107,
      "cise": 1108,
      "ĠĠĠĠĠĠĠĠĠĠĠĠĠĠĠ": 1109,
      "vo": 1110,
      "Ġâ": 1111,
      "tail": 1112,
      "Ġlint": 1113,
      "Ġwithout": 1114,
      "not": 1115,
      "Ġplay": 1116,
      "();\\": 1117,
      "Ġsn": 1118,
      "Ġproject": 1119,
      "Ġ12": 1120,
      "Ġtarget": 1121,
      "Ġi": 1122,
      "ince": 1123,
      "are": 1124,
      "Ġstr": 1125,
      "ader": 1126,
      "ling": 1127,
      "ules": 1128,
      "ĠIn": 1129,
      "ms": 1130,
      "Ġtype": 1131,
      "Ġhow": 1132,
      "Ġthro": 1133,
      "Ġmax": 1134,
      "Ġvis": 1135,
      "Ġte": 1136,
      "ĠĠĠĠĠĠĠĠĠ": 1137,
      "ner": 1138,
      "ugg": 1139,
      "Ġsame": 1140,
      "ives": 1141,
      "Ġsrc": 1142,
      "Ġusing": 1143,
      "##": 1144,
      "Ġexecut": 1145,
      "Ġactually": 1146,
      "Ġvia": 1147,
      "Ġfr": 1148,
      "Ġwant": 1149,
      "rite": 1150,
      "Ġhel": 1151,
      "stem": 1152,
      "Ġentry": 1153,
      "Ġ#": 1154,
      "Ġrespon": 1155,
      "vious": 1156,
      "ummary": 1157,
      "Ġbeen": 1158,
      "import": 1159,
      "encode": 1160,
      "Ġmet": 1161,
      "Ġdirectory": 1162,
      "ys": 1163,
      "80": 1164,
      "REE": 1165,
      "Ġsteps": 1166,
      "`).": 1167,
      "Ġwhether": 1168,
      "Ġused": 1169,
      "ency": 1170,
      "Ġmust": 1171,
      "lay": 1172,
      "Ġself": 1173,
      "Ġ`/": 1174,
      "Ġscre": 1175,
      "ants": 1176,
      "ample": 1177,
      "40": 1178,
      "To": 1179,
      "tern": 1180,
      "ĠTH": 1181,
      "feren": 1182,
      "its": 1183,
      "rompt": 1184,
      "Ġlimit": 1185,
      "Ġrender": 1186,
      "urnal": 1187,
      "66": 1188,
      "ics": 1189,
      "230": 1190,
      "Ġmy": 1191,
      "kens": 1192,
      "ensor": 1193,
      "Ġtrans": 1194,
      "essages": 1195,
      "ix": 1196,
      "Ġ7": 1197,
      "Ġlast": 1198,
      "Ġdec": 1199,
      "ake": 1200,
      "Ġpage": 1201,
      "vid": 1202,
      "iven": 1203,
      "Ġget": 1204,
      "Ġclean": 1205,
      "\\\":": 1206,
      "Ġtorch": 1207,
      "sc": 1208,
      "Ġfinal": 1209,
      "ml": 1210,
      "26": 1211,
      "Ġ20": 1212,
      "Ġpat": 1213,
      "Ġpipe": 1214,
      "36": 1215,
      "):": 1216,
      "16": 1217,
      "Ġboth": 1218,
      "limit": 1219,
      "Ġold": 1220,
      "Ġnon": 1221,
      "ME": 1222,
      "output": 1223,
      "Ġloc": 1224,
      "Ġelse": 1225,
      "Ġresults": 1226,
      "Ġ10": 1227,
      "mat": 1228,
      "bed": 1229,
      "Ġawait": 1230,
      "message": 1231,
      "yp": 1232,
      "iki": 1233,
      "Ġcontent": 1234,
      "Ġcomp": 1235,
      "ameters": 1236,
      "ient": 1237,
      "Ġpart": 1238,
      "Ġbas": 1239,
      "Ġthrough": 1240,
      "Ġ?": 1241,
      "html": 1242,
      "gress": 1243,
      "00008230": 1244,
      "og": 1245,
      "Ġind": 1246,
      "ng": 1247,
      "led": 1248,
      "paperclip": 1249,
      "ments": 1250,
      "Ġask": 1251,
      "Id": 1252,
      "Ġtail": 1253,
      "Ġload": 1254,
      "prompt": 1255,
      "Ġyou": 1256,
      "Ġlikely": 1257,
      "Ġopt": 1258,
      "Ġexactly": 1259,
      "uble": 1260,
      "Ġrunning": 1261,
      "tasks": 1262,
      "Ġclear": 1263,
      "Ġerrors": 1264,
      "type": 1265,
      "ĠJS": 1266,
      "sion": 1267,
      "Ġstatus": 1268,
      "ĠTHREE": 1269,
      "ven": 1270,
      "Ġob": 1271,
      "omet": 1272,
      "Ġprevious": 1273,
      "ingle": 1274,
      "urce": 1275,
      "ries": 1276,
      "status": 1277,
      "tention": 1278,
      "Ġensure": 1279,
      "Ġfe": 1280,
      "ces": 1281,
      "Ġcould": 1282,
      "train": 1283,
      "Ġsm": 1284,
      "refore": 1285,
      "Ġ:": 1286,
      "doc": 1287,
      "Ġ\"/": 1288,
      "Ġnumb": 1289,
      "Ġtoken": 1290,
      "ench": 1291,
      "));\\": 1292,
      "CO": 1293,
      "11": 1294,
      "ython": 1295,
      "Ġmat": 1296,
      "Ġcheckpoint": 1297,
      "ux": 1298,
      "ving": 1299,
      "Ġthree": 1300,
      "6000": 1301,
      "Ġref": 1302,
      "eb": 1303,
      "âĢĶ": 1304,
      "...": 1305,
      "Ġresult": 1306,
      "Ġz": 1307,
      "Ġway": 1308,
      "Ġsingle": 1309,
      "Ġextr": 1310,
      "Ġrele": 1311,
      "idth": 1312,
      "ĠEdit": 1313,
      "max": 1314,
      "Ġmore": 1315,
      "loat": 1316,
      "ank": 1317,
      "(--": 1318,
      "ault": 1319,
      "posit": 1320,
      "Ġgame": 1321,
      "ĠIf": 1322,
      "00006000": 1323,
      "dev": 1324,
      "Ġanim": 1325,
      "main": 1326,
      "Ġsuite": 1327,
      "Ġscreens": 1328,
      "enchmark": 1329,
      "Ġwo": 1330,
      "ames": 1331,
      "ched": 1332,
      "://": 1333,
      "Ġcontext": 1334,
      "eline": 1335,
      "Ġx": 1336,
      "Ġfinis": 1337,
      "Ġhandling": 1338,
      "Ġplace": 1339,
      "Ġfew": 1340,
      "ush": 1341,
      "lex": 1342,
      "Ġreposit": 1343,
      "igh": 1344,
      "ctions": 1345,
      "pose": 1346,
      "ible": 1347,
      "nel": 1348,
      "Ġrepository": 1349,
      "Ġconcise": 1350,
      "yn": 1351,
      "Ġdoes": 1352,
      "Ġreport": 1353,
      "Ġupdated": 1354,
      "Ġspecific": 1355,
      "Ġgu": 1356,
      "AT": 1357,
      "ved": 1358,
      "let": 1359,
      "Ġdescription": 1360,
      "Ġrequire": 1361,
      "');\\": 1362,
      "ream": 1363,
      "Ġround": 1364,
      "Ġoverall": 1365,
      "LE": 1366,
      "Ġmessages": 1367,
      "Ġdi": 1368,
      "rid": 1369,
      "Ġarc": 1370,
      "Ġwhile": 1371,
      "indow": 1372,
      "self": 1373,
      "code": 1374,
      "In": 1375,
      "Ġ});\\": 1376,
      "Ġvari": 1377,
      "15": 1378,
      "local": 1379,
      "amp": 1380,
      "Ġinclud": 1381,
      "13": 1382,
      "Ġmiss": 1383,
      "Ġname": 1384,
      "raw": 1385,
      "Ġmark": 1386,
      "llow": 1387,
      "Ġcons": 1388,
      "Ġimplementation": 1389,
      "bin": 1390,
      "Ġyet": 1391,
      "from": 1392,
      "Ġview": 1393,
      "Ġdirectly": 1394,
      "14": 1395,
      "24": 1396,
      "Ġman": 1397,
      "Ġcreate": 1398,
      "ne": 1399,
      "ery": 1400,
      "length": 1401,
      "260": 1402,
      "ralph": 1403,
      "Ġpattern": 1404,
      "claude": 1405,
      "Ġplan": 1406,
      "tc": 1407,
      "Ġsim": 1408,
      "Ġsize": 1409,
      "Ġph": 1410,
      "python": 1411,
      "ange": 1412,
      "')": 1413,
      "nan": 1414,
      "ason": 1415,
      "down": 1416,
      "Ġtop": 1417,
      "Ġtrue": 1418,
      "Ġsystem": 1419,
      "Ġopen": 1420,
      "Ġknow": 1421,
      "Ġter": 1422,
      "Ġmain": 1423,
      "Ġwiki": 1424,
      "Ġindic": 1425,
      "Ġsimp": 1426,
      "Ġadapter": 1427,
      "130": 1428,
      "Ġmult": 1429,
      "Ġperform": 1430,
      "les": 1431,
      "Ġwould": 1432,
      "do": 1433,
      "med": 1434,
      "board": 1435,
      "Ġtrain": 1436,
      "Ġoff": 1437,
      "Ġcorrectly": 1438,
      "vant": 1439,
      "Se": 1440,
      "wer": 1441,
      "Ġmin": 1442,
      "Pro": 1443,
      "Ġetc": 1444,
      "EX": 1445,
      "cod": 1446,
      "ĠJSON": 1447,
      "Config": 1448,
      "Ġloss": 1449,
      "size": 1450,
      "Ġmap": 1451,
      "ross": 1452,
      "ever": 1453,
      "aun": 1454,
      "ĠTo": 1455,
      "Ġassert": 1456,
      "Ġpos": 1457,
      "Ġdocumentation": 1458,
      "Ġsmall": 1459,
      "Ġblimp": 1460,
      "ipp": 1461,
      "Ġca": 1462,
      "irst": 1463,
      "but": 1464,
      "Given": 1465,
      "ĠSTM": 1466,
      "Ġchange": 1467,
      "65": 1468,
      "PU": 1469,
      "Ġverification": 1470,
      "00008130": 1471,
      "make": 1472,
      "Ġrest": 1473,
      "vir": 1474,
      "ative": 1475,
      "tempt": 1476,
      "Ġass": 1477,
      "agent": 1478,
      "tx": 1479,
      "Ġcount": 1480,
      "ai": 1481,
      "Ġreferen": 1482,
      "pre": 1483,
      "\\\">": 1484,
      "atas": 1485,
      "Ġem": 1486,
      "conds": 1487,
      "ataset": 1488,
      "Ġfollow": 1489,
      "igin": 1490,
      "ache": 1491,
      "aot": 1492,
      "Ġsyn": 1493,
      "just": 1494,
      "âĸĪâĸĪâĸĪâĸĪ": 1495,
      "tests": 1496,
      "uring": 1497,
      "ical": 1498,
      "Ġchecks": 1499,
      "state": 1500,
      "jo": 1501,
      "wor": 1502,
      "Ġmodule": 1503,
      "span": 1504,
      "Ġcontin": 1505,
      "build": 1506,
      "Ġinstall": 1507,
      "US": 1508,
      "Ġsnipp": 1509,
      "png": 1510,
      "dd": 1511,
      "Ġsnippet": 1512,
      "Ġinspect": 1513,
      "Ġdist": 1514,
      "Ġeffect": 1515,
      "Ġrelevant": 1516,
      "viron": 1517,
      "19": 1518,
      "perim": 1519,
      "Ġctx": 1520,
      "Ġmost": 1521,
      "TML": 1522,
      "ppl": 1523,
      "Ġversion": 1524,
      "leep": 1525,
      "server": 1526,
      "================": 1527,
      "hat": 1528,
      "alk": 1529,
      "Ġformat": 1530,
      "Ġcalls": 1531,
      "\\\")\\": 1532,
      "Ġ14": 1533,
      "Ġorigin": 1534,
      "Ġneeded": 1535,
      "ton": 1536,
      "Ġmatch": 1537,
      "ody": 1538,
      "training": 1539,
      "off": 1540,
      "Ġdif": 1541,
      "=\"": 1542,
      "Text": 1543,
      "Ġpipeline": 1544,
      "EXT": 1545,
      "Ġbot": 1546,
      "Ġralph": 1547,
      "Ġvalues": 1548,
      "base": 1549,
      "Ġjournal": 1550,
      "Ġwait": 1551,
      "Ġreal": 1552,
      "Ġfunctions": 1553,
      "Ġinclude": 1554,
      "Ġright": 1555,
      "06": 1556,
      "Ġmissing": 1557,
      "vironment": 1558,
      "Ġsource": 1559,
      "head": 1560,
      "Ġlong": 1561,
      ">&": 1562,
      "sh": 1563,
      "here": 1564,
      "Ġ16": 1565,
      "Ġsup": 1566,
      "Ġdone": 1567,
      "finite": 1568,
      "Ġquick": 1569,
      "Ġcontains": 1570,
      "api": 1571,
      "ta": 1572,
      "TT": 1573,
      ">/": 1574,
      "Ġtim": 1575,
      "str": 1576,
      "Ġlater": 1577,
      "uggest": 1578,
      "lic": 1579,
      "Ġsa": 1580,
      "Ġalign": 1581,
      "fo": 1582,
      "Ġinform": 1583,
      "iate": 1584,
      "ns": 1585,
      "annel": 1586,
      "Ġagain": 1587,
      "ĠSince": 1588,
      "Ġdisplay": 1589,
      "2606": 1590,
      "reak": 1591,
      "Ġlen": 1592,
      "Ġfiel": 1593,
      "Ġwere": 1594,
      "Ġpa": 1595,
      "Tr": 1596,
      "sing": 1597,
      "Ġshows": 1598,
      "AI": 1599,
      "Ġstyle": 1600,
      "Ġconstruct": 1601,
      "cept": 1602,
      "Ġdefault": 1603,
      "Ġsuccess": 1604,
      "pa": 1605,
      "comple": 1606,
      "ings": 1607,
      "uration": 1608,
      "âĢ¦": 1609,
      "Ġwar": 1610,
      "Ġlive": 1611,
      "Ġdetail": 1612,
      "Ġmatches": 1613,
      "ially": 1614,
      "ene": 1615,
      "Ġfreebuff": 1616,
      "Ġ==": 1617,
      "Ġmem": 1618,
      "Ġsur": 1619,
      "Ġlay": 1620,
      "plicit": 1621,
      "Therefore": 1622,
      "ĠAPI": 1623,
      "ays": 1624,
      "Ġcomput": 1625,
      "Ġfont": 1626,
      "level": 1627,
      "ality": 1628,
      "ero": 1629,
      "Ġagents": 1630,
      "ĠHow": 1631,
      "Ġenvironment": 1632,
      "Ġhelper": 1633,
      "lob": 1634,
      "ublic": 1635,
      "duced": 1636,
      "Ġmulti": 1637,
      "ful": 1638,
      "Ġ~": 1639,
      "All": 1640,
      "Ġwants": 1641,
      "Ġrate": 1642,
      "Ġdefinition": 1643,
      "stand": 1644,
      "Ġmay": 1645,
      "pear": 1646,
      "active": 1647,
      "Ġentries": 1648,
      "EO": 1649,
      "style": 1650,
      "GE": 1651,
      "pend": 1652,
      "Ġwrite": 1653,
      "face": 1654,
      "Ġbatch": 1655,
      "me": 1656,
      "Ġ!": 1657,
      "data": 1658,
      "mod": 1659,
      "Ġlat": 1660,
      "ilter": 1661,
      "by": 1662,
      "Ġmight": 1663,
      "()\\": 1664,
      "Ġtasks": 1665,
      "Ġtokens": 1666,
      "({": 1667,
      "less": 1668,
      "rror": 1669,
      "Ġeffic": 1670,
      "Ġ||": 1671,
      "Ġarg": 1672,
      "Ġoriginal": 1673,
      "andom": 1674,
      "ackage": 1675,
      "202606": 1676,
      "batch": 1677,
      "freebuff": 1678,
      "Ġ$": 1679,
      "So": 1680,
      "Ġshort": 1681,
      "tings": 1682,
      "Ġlaun": 1683,
      "cond": 1684,
      "order": 1685,
      "Ġsend": 1686,
      "DE": 1687,
      "Ġve": 1688,
      "Ġsco": 1689,
      "Ġmodels": 1690,
      "))": 1691,
      "Ġgoal": 1692,
      "uple": 1693,
      "content": 1694,
      "18": 1695,
      "Ġflex": 1696,
      "âĢĿ.": 1697,
      "idd": 1698,
      "USER": 1699,
      "42": 1700,
      "Ġbreak": 1701,
      "Ġtm": 1702,
      "stm": 1703,
      "Ġproper": 1704,
      "Ġexplicit": 1705,
      "Ġindex": 1706,
      "alls": 1707,
      "Ġattempt": 1708,
      "99": 1709,
      "Ġgrad": 1710,
      "Ġsk": 1711,
      "docs": 1712,
      "Ġbenchmark": 1713,
      "CONT": 1714,
      "flow": 1715,
      "this": 1716,
      "Ġresponse": 1717,
      "Ġintro": 1718,
      "Ġvisual": 1719,
      "mediate": 1720,
      "Ġlocate": 1721,
      "Ġsimple": 1722,
      "Ġnorm": 1723,
      "Ġflag": 1724,
      "grep": 1725,
      "Ġappear": 1726,
      "press": 1727,
      "Sc": 1728,
      "SE": 1729,
      "ature": 1730,
      "Ġedits": 1731,
      "ĠĠĠĠĠĠĠĠĠĠĠĠĠĠĠĠĠĠĠĠĠĠĠĠĠĠĠĠĠĠĠĠĠĠĠĠĠĠĠĠĠĠĠĠĠĠĠĠĠĠĠĠĠĠĠĠĠĠĠĠĠĠĠĠĠĠĠĠĠĠĠĠĠĠĠĠĠĠĠĠĠĠĠĠĠĠĠĠĠĠĠĠĠĠĠĠ": 1732,
      "Ġwrit": 1733,
      "ws": 1734,
      "ator": 1735,
      "adapter": 1736,
      "istant": 1737,
      "ith": 1738,
      "action": 1739,
      "tt": 1740,
      "periment": 1741,
      "This": 1742,
      "void": 1743,
      "Ġtem": 1744,
      "Ġdon": 1745,
      "._": 1746,
      "date": 1747,
      "Ġthan": 1748,
      "Ġupdate": 1749,
      "rank": 1750,
      "etch": 1751,
      "cho": 1752,
      "Ġ13": 1753,
      "55": 1754,
      "Ġsuggest": 1755,
      "Ġanimation": 1756,
      "Ġans": 1757,
      "vas": 1758,
      ")`": 1759,
      "Ġprob": 1760,
      "Ġmode": 1761,
      "Ġ},\\": 1762,
      "ĠHTML": 1763,
      "fill": 1764,
      "summary": 1765,
      "âł": 1766,
      "ves": 1767,
      "Ġcurrently": 1768,
      "Ġacc": 1769,
      "\"`": 1770,
      "iency": 1771,
      "ructure": 1772,
      "plan": 1773,
      "Ġreg": 1774,
      "ĠHowever": 1775,
      "CONTEXT": 1776,
      "loop": 1777,
      "der": 1778,
      "havi": 1779,
      "functions": 1780,
      "ats": 1781,
      "Ġ`.": 1782,
      "Ġreason": 1783,
      "\\\",\\": 1784,
      "havior": 1785,
      "nconst": 1786,
      "Ġiter": 1787,
      "trans": 1788,
      "ization": 1789,
      "notification": 1790,
      "hell": 1791,
      "22": 1792,
      "position": 1793,
      "node": 1794,
      "iny": 1795,
      "\\\"]": 1796,
      "Ġadjust": 1797,
      "ĠIt": 1798,
      "Ġhigh": 1799,
      "Ġsha": 1800,
      "di": 1801,
      "ĠPython": 1802,
      "Ġunderstand": 1803,
      "/.": 1804,
      "90": 1805,
      "ĠV": 1806,
      "Ġ_": 1807,
      "100": 1808,
      "Ġsign": 1809,
      "Ġbehavior": 1810,
      "try": 1811,
      "Ġscreenshot": 1812,
      "Ġtmux": 1813,
      "Ġavoid": 1814,
      "htt": 1815,
      "Ġplayer": 1816,
      "ĨĴ": 1817,
      "erg": 1818,
      "Ġprogress": 1819,
      "loss": 1820,
      "Ġposition": 1821,
      "IN": 1822,
      "Ġ30": 1823,
      "ndef": 1824,
      "Ġinv": 1825,
      "Ġtimeout": 1826,
      "Ġpreview": 1827,
      "crete": 1828,
      "Ġworks": 1829,
      "null": 1830,
      "((": 1831,
      "Ġsearch": 1832,
      "ĠWeb": 1833,
      "Ġtermin": 1834,
      "Ġav": 1835,
      "igg": 1836,
      ">`": 1837,
      "Ġreturns": 1838,
      "Ġasked": 1839,
      "32": 1840,
      "ID": 1841,
      "Ġthink": 1842,
      "Ġpassed": 1843,
      "player": 1844,
      "Ġimmediate": 1845,
      "Ġtyp": 1846,
      "Ġment": 1847,
      "groq": 1848,
      "Ġ`<": 1849,
      "escri": 1850,
      "aces": 1851,
      "ility": 1852,
      "comp": 1853,
      "Ġbase": 1854,
      "Ġdid": 1855,
      "Ġvariable": 1856,
      "nimport": 1857,
      "user": 1858,
      "resh": 1859,
      "weight": 1860,
      "48": 1861,
      "MP": 1862,
      "unk": 1863,
      "Ġnumber": 1864,
      "game": 1865,
      "ote": 1866,
      "05": 1867,
      "Ġmon": 1868,
      "Ġresol": 1869,
      "Ġtry": 1870,
      "RA": 1871,
      "\\\"\\": 1872,
      "Ġ</": 1873,
      "sole": 1874,
      "fr": 1875,
      "Ġ100": 1876,
      "Ġmemory": 1877,
      "23": 1878,
      "def": 1879,
      "Ġprovid": 1880,
      "Ġparameters": 1881,
      "Ġsl": 1882,
      "Ġbrow": 1883,
      "Ġ15": 1884,
      "voke": 1885,
      "Ġbeing": 1886,
      "Ġincludes": 1887,
      "Ġecho": 1888,
      "Ġpresent": 1889,
      "Ġfloat": 1890,
      "era": 1891,
      "urpose": 1892,
      "Ġsome": 1893,
      "Ġcompleted": 1894,
      "Ġeverything": 1895,
      "aderboard": 1896,
      "Bo": 1897,
      "hing": 1898,
      "Ġchar": 1899,
      "Ġuses": 1900,
      "token": 1901,
      "Ġrem": 1902,
      "ĠCSS": 1903,
      "Ġgo": 1904,
      "mon": 1905,
      "Ġinit": 1906,
      "[\\\"": 1907,
      "rer": 1908,
      "izer": 1909,
      "Ġ57": 1910,
      "abel": 1911,
      "mpty": 1912,
      "coder": 1913,
      "Ġscores": 1914,
      "adow": 1915,
      "requ": 1916,
      "ĠSo": 1917,
      "forward": 1918,
      "ĠRead": 1919,
      "idden": 1920,
      "bar": 1921,
      "Ġoc": 1922,
      "Ġglint": 1923,
      "âĢĿ,": 1924,
      "Ġ17": 1925,
      "Ġcli": 1926,
      "Ġobject": 1927,
      "Ġtools": 1928,
      "];\\": 1929,
      "Ġempty": 1930,
      "Error": 1931,
      "itor": 1932,
      "),\\": 1933,
      "que": 1934,
      "Ġmodified": 1935,
      "Ġwho": 1936,
      "decoder": 1937,
      "ĠCLI": 1938,
      "roke": 1939,
      "amera": 1940,
      "tn": 1941,
      "Ġkill": 1942,
      "ĠID": 1943,
      "bl": 1944,
      "valu": 1945,
      "Ar": 1946,
      "card": 1947,
      "hold": 1948,
      "ĠGPU": 1949,
      "Ġefficiency": 1950,
      "pound": 1951,
      "Ġfailed": 1952,
      "key": 1953,
      "Ġcoun": 1954,
      "85": 1955,
      "rate": 1956,
      "edback": 1957,
      "Ġstructure": 1958,
      "Ġrendering": 1959,
      "Ġconcrete": 1960,
      "dout": 1961,
      "ier": 1962,
      "inst": 1963,
      "Ġpy": 1964,
      "grad": 1965,
      "double": 1966,
      "Ġdescri": 1967,
      "Ġsucceed": 1968,
      "Ġcreated": 1969,
      "full": 1970,
      "ized": 1971,
      "Ġu": 1972,
      "ably": 1973,
      "Ġaround": 1974,
      "usion": 1975,
      "ten": 1976,
      "List": 1977,
      "Ġbaseline": 1978,
      "Ġvec": 1979,
      "map": 1980,
      "âĶĢâĶĢâĶĢâĶĢâĶĢâĶĢâĶĢâĶĢâĶĢâĶĢâĶĢâĶĢâĶĢâĶĢâĶĢâĶĢâĶĢâĶĢâĶĢâĶĢâĶĢâĶĢâĶĢâĶĢâĶĢâĶĢâĶĢâĶĢâĶĢâĶĢâĶĢâĶĢ": 1981,
      "Ġcontinue": 1982,
      "former": 1983,
      "Ġissues": 1984,
      "ale": 1985,
      "sl": 1986,
      "(\\": 1987,
      "64": 1988,
      "Ġcol": 1989,
      "ĠGroq": 1990,
      "17": 1991,
      "ins": 1992,
      "Ġcommands": 1993,
      "cent": 1994,
      "NTS": 1995,
      "Ġconfiguration": 1996,
      "Ġstream": 1997,
      "Ġlogo": 1998,
      "duce": 1999,
      "Ġexpected": 2000,
      "ĠAfter": 2001,
      "Ġmetho": 2002,
      ")}": 2003,
      "ĊĠĠĠĠĠ": 2004,
      "Ġinte": 2005,
      "Ġanswer": 2006,
      "arse": 2007,
      "opencode": 2008,
      "Ġinside": 2009,
      "alker": 2010,
      "aut": 2011,
      "Ġisn": 2012,
      "ness": 2013,
      "LM": 2014,
      "Ġconfirming": 2015,
      "ĠâĨĴ": 2016,
      "met": 2017,
      "Ġsummary": 2018,
      "Ġlatest": 2019,
      "45": 2020,
      "]\\": 2021,
      "Ġrende": 2022,
      "AD": 2023,
      "bot": 2024,
      "laude": 2025,
      "ribut": 2026,
      "Ġbest": 2027,
      "Ġborder": 2028,
      "pped": 2029,
      "start": 2030,
      "Ġcore": 2031,
      "Ġgl": 2032,
      "ĠThen": 2033,
      "cat": 2034,
      "icon": 2035,
      "itle": 2036,
      "Ġimports": 2037,
      "33": 2038,
      "Ġsleep": 2039,
      "Ġdataset": 2040,
      "Ġcr": 2041,
      "True": 2042,
      "session": 2043,
      "Ġ`\"": 2044,
      "Ġappro": 2045,
      "Ġclo": 2046,
      "ute": 2047,
      "work": 2048,
      "Ġelement": 2049,
      "torch": 2050,
      "ĠĠĠĠĠĠĠĠĠĠĠĠĠ": 2051,
      "Ġhard": 2052,
      "ended": 2053,
      "Ġreflect": 2054,
      "np": 2055,
      "Ġdown": 2056,
      "ray": 2057,
      "Ġcompon": 2058,
      "96": 2059,
      "Ġport": 2060,
      "search": 2061,
      "ytest": 2062,
      "after": 2063,
      "Ġ60": 2064,
      "awn": 2065,
      "EOF": 2066,
      "tom": 2067,
      "Ġcase": 2068,
      "47": 2069,
      "ĠTensor": 2070,
      "ameter": 2071,
      "pers": 2072,
      "Ġbet": 2073,
      "ĠTr": 2074,
      "Ġtell": 2075,
      "loor": 2076,
      "gener": 2077,
      "):\\": 2078,
      "Ġfinished": 2079,
      "';\\": 2080,
      "Ġpytest": 2081,
      "aterial": 2082,
      "Ġusage": 2083,
      "Ġ25": 2084,
      "Ġplus": 2085,
      "ather": 2086,
      "Ġ+=": 2087,
      "Ġopencode": 2088,
      "Ġsw": 2089,
      "++": 2090,
      "dist": 2091,
      "Ġscene": 2092,
      "box": 2093,
      "Time": 2094,
      "Ġsomet": 2095,
      "TO": 2096,
      "hots": 2097,
      "urther": 2098,
      "project": 2099,
      "args": 2100,
      "ĠAdd": 2101,
      "Ġyour": 2102,
      "like": 2103,
      "RO": 2104,
      "Ġexit": 2105,
      "ĠGlint": 2106,
      "write": 2107,
      "Ġfurther": 2108,
      "Ġcontents": 2109,
      "Ġcodebase": 2110,
      "public": 2111,
      "Â·": 2112,
      "Ġmak": 2113,
      "Ġ32": 2114,
      "Ġmove": 2115,
      "Ġrel": 2116,
      "Ġrequired": 2117,
      "Ġaligns": 2118,
      "Ġexecute": 2119,
      "Ġremo": 2120,
      "Ġlight": 2121,
      "icro": 2122,
      "Ġdocs": 2123,
      "count": 2124,
      "ometry": 2125,
      "Ġbrowser": 2126,
      "ba": 2127,
      "goal": 2128,
      "lection": 2129,
      "rend": 2130,
      ":\\\\": 2131,
      "side": 2132,
      "Ġoccur": 2133,
      "Ġ${": 2134,
      "Ġendpoint": 2135,
      "ais": 2136,
      "dim": 2137,
      "earch": 2138,
      "hand": 2139,
      "Ġitem": 2140,
      "sets": 2141,
      "Ġran": 2142,
      "wh": 2143,
      "enu": 2144,
      "Ġinvoke": 2145,
      "Ġreturned": 2146,
      "Ġmean": 2147,
      "Ġmodify": 2148,
      "timeout": 2149,
      "acing": 2150,
      "Ġvalue": 2151,
      "eometry": 2152,
      "Ġ'#": 2153,
      "--------------------------------": 2154,
      "ĊĠĠĠĠĠĠĠ": 2155,
      "ĠK": 2156,
      "Ġrecord": 2157,
      "agno": 2158,
      "`),": 2159,
      "Ġproceed": 2160,
      "Ġdepend": 2161,
      "host": 2162,
      "ower": 2163,
      "epar": 2164,
      "Ġinformation": 2165,
      "vents": 2166,
      "ulation": 2167,
      "Ġembed": 2168,
      "alle": 2169,
      "Ġbro": 2170,
      "ook": 2171,
      "ĠSt": 2172,
      "Ġhandle": 2173,
      "ough": 2174,
      "Ġarch": 2175,
      "esh": 2176,
      "();": 2177,
      "Ġvalid": 2178,
      "Ġinitial": 2179,
      "Ġtot": 2180,
      "ilar": 2181,
      "andid": 2182,
      "Ġsmo": 2183,
      "studio": 2184,
      "Ġimpro": 2185,
      "current": 2186,
      "Ġactions": 2187,
      "Ġhav": 2188,
      "ilt": 2189,
      "LER": 2190,
      "Ġcent": 2191,
      "roll": 2192,
      "Ġstatic": 2193,
      "Ġquery": 2194,
      "logo": 2195,
      "top": 2196,
      "Ġselect": 2197,
      "Ġoptim": 2198,
      "bas": 2199,
      "stri": 2200,
      "cket": 2201,
      "Ġposs": 2202,
      "using": 2203,
      "Ġdouble": 2204,
      "Ġverified": 2205,
      "Ġpackage": 2206,
      "ural": 2207,
      "'ll": 2208,
      "UD": 2209,
      "Ġrule": 2210,
      "Ġactual": 2211,
      "Ġ18": 2212,
      "Script": 2213,
      "],\\": 2214,
      "haps": 2215,
      "istic": 2216,
      "Ġexplicitly": 2217,
      "dis": 2218,
      "Ġfixed": 2219,
      "LERP": 2220,
      "Ġseries": 2221,
      "ric": 2222,
      "Ġseed": 2223,
      "Ġbutton": 2224,
      "col": 2225,
      "where": 2226,
      "Ġnever": 2227,
      "over": 2228,
      "inally": 2229,
      "Ġacross": 2230,
      "Ġauto": 2231,
      "Ġ2026": 2232,
      "Ġtotal": 2233,
      "Ġtheir": 2234,
      "\\\")": 2235,
      "Ġident": 2236,
      "Ġsol": 2237,
      "Ġallow": 2238,
      "uff": 2239,
      "Ġlength": 2240,
      ".âĢĿ": 2241,
      "ls": 2242,
      "ump": 2243,
      "Ġentire": 2244,
      "TE": 2245,
      "used": 2246,
      "of": 2247,
      "Ġfailure": 2248,
      "ui": 2249,
      "Ġsure": 2250,
      "OM": 2251,
      "Ġlocal": 2252,
      "mjs": 2253,
      "vers": 2254,
      "28": 2255,
      "Ġwidth": 2256,
      "01": 2257,
      "por": 2258,
      "Ġfilter": 2259,
      "First": 2260,
      "Ġsav": 2261,
      "ories": 2262,
      "ĠRun": 2263,
      "78": 2264,
      "vice": 2265,
      "ume": 2266,
      "Ġcharact": 2267,
      "Ġhtt": 2268,
      "apon": 2269,
      "/`": 2270,
      "fusion": 2271,
      "Ġexp": 2272,
      "Ġdraw": 2273,
      "nfrom": 2274,
      "Ġturn": 2275,
      "aced": 2276,
      "Ġextract": 2277,
      "###": 2278,
      "Ġsimilar": 2279,
      "ync": 2280,
      "ding": 2281,
      "seconds": 2282,
      "tokens": 2283,
      "Ġdes": 2284,
      "cli": 2285,
      "Ġexists": 2286,
      "clud": 2287,
      "Ġpyaot": 2288,
      "Ġfall": 2289,
      "Ġwhy": 2290,
      "can": 2291,
      "esearch": 2292,
      "Ġpreser": 2293,
      "GENTS": 2294,
      "RL": 2295,
      "Ġsepar": 2296,
      "Tool": 2297,
      "95": 2298,
      "Ġoper": 2299,
      "Ġblocks": 2300,
      "Ġgeneration": 2301,
      "Ġphase": 2302,
      "Ġargument": 2303,
      "Ġsomething": 2304,
      "Ġcompute": 2305,
      "til": 2306,
      "Ġweb": 2307,
      "fl": 2308,
      "Ġsecond": 2309,
      "Ġdefined": 2310,
      "Ġdecide": 2311,
      "Box": 2312,
      "CH": 2313,
      "udget": 2314,
      "ĠNo": 2315,
      "ampion": 2316,
      "Ġvs": 2317,
      "Path": 2318,
      "Ġfind": 2319,
      "Ġzero": 2320,
      "Ġtri": 2321,
      "Ġexpects": 2322,
      "Ġsupport": 2323,
      "PS": 2324,
      "Ġbr": 2325,
      "\\\"\\\"": 2326,
      "Ġexperiment": 2327,
      "amples": 2328,
      "Ġaccur": 2329,
      "Ġwindow": 2330,
      "1000": 2331,
      "Ġsection": 2332,
      "Ġwhole": 2333,
      "').": 2334,
      "Ex": 2335,
      "sed": 2336,
      "Ġdim": 2337,
      "Ġframe": 2338,
      "Ch": 2339,
      "tsx": 2340,
      "Ġ59": 2341,
      "FT": 2342,
      "EN": 2343,
      "tools": 2344,
      "ĠÂ·": 2345,
      "itch": 2346,
      "cache": 2347,
      "Run": 2348,
      "cessary": 2349,
      "Ġupdates": 2350,
      "random": 2351,
      "Ġchat": 2352,
      "Ġworkflow": 2353,
      "\\\">\\": 2354,
      "Ġattention": 2355,
      "uch": 2356,
      "inary": 2357,
      "Ġchannel": 2358,
      "ering": 2359,
      "Ġow": 2360,
      "Ġsequ": 2361,
      "Ġstudio": 2362,
      "Ġcamera": 2363,
      "iter": 2364,
      "75": 2365,
      "AL": 2366,
      "cle": 2367,
      "exit": 2368,
      "push": 2369,
      "Ġcomplete": 2370,
      "Ġforward": 2371,
      "Ġnull": 2372,
      "Ġstri": 2373,
      "Ġconsole": 2374,
      "Ġmethod": 2375,
      "(-": 2376,
      "34": 2377,
      "width": 2378,
      "Ġpull": 2379,
      "Ġrepo": 2380,
      "Ġquest": 2381,
      "Ġfield": 2382,
      "list": 2383,
      "ĊĊĠ": 2384,
      "dir": 2385,
      "utes": 2386,
      "ĠWrite": 2387,
      "Ġnumbers": 2388,
      "Ġhaven": 2389,
      "sers": 2390,
      "ĠĠĠĠĠĠĠĠĠĠĠĠĠĠĠĠĠĠĠ": 2391,
      "Ġ};\\": 2392,
      "Ġlaunch": 2393,
      "MA": 2394,
      "window": 2395,
      "Ġclient": 2396,
      "efore": 2397,
      "aran": 2398,
      "ution": 2399,
      "Ġsever": 2400,
      "adding": 2401,
      "Ġlogs": 2402,
      "vis": 2403,
      "env": 2404,
      "Ġfar": 2405,
      "espec": 2406,
      "Ġweight": 2407,
      "Ġremaining": 2408,
      "especially": 2409,
      "Ġadding": 2410,
      "Ġprocesses": 2411,
      "].": 2412,
      "Ġtrace": 2413,
      "Ġintroduced": 2414,
      "ugging": 2415,
      "])": 2416,
      "wise": 2417,
      "Ġbox": 2418,
      "Ġseveral": 2419,
      "Ġsucceeded": 2420,
      "Ġside": 2421,
      "ities": 2422,
      "acy": 2423,
      "ĠAn": 2424,
      "atar": 2425,
      "Ġcat": 2426,
      "Ġsettings": 2427,
      "join": 2428,
      "At": 2429,
      "sha": 2430,
      "Ġrepl": 2431,
      "Ġgre": 2432,
      "teich": 2433,
      "09": 2434,
      "Ġuntil": 2435,
      "Ġmention": 2436,
      "Ġraw": 2437,
      "ĠAl": 2438,
      "Ġleaderboard": 2439,
      "Ġmodules": 2440,
      "Ġinstru": 2441,
      "Ġcap": 2442,
      "Ġexpl": 2443,
      "process": 2444,
      "mb": 2445,
      "Ġfetch": 2446,
      "Ġbar": 2447,
      "acity": 2448,
      "Math": 2449,
      "Ġcomment": 2450,
      "Ġparts": 2451,
      "eff": 2452,
      "nfunction": 2453,
      "()`": 2454,
      "which": 2455,
      "âĸĪâĸĪâĸĪâĸĪâĸĪâĸĪâĸĪâĸĪ": 2456,
      "Ġatt": 2457,
      "Call": 2458,
      "Ġ(!": 2459,
      "Ġimage": 2460,
      "Ġ...": 2461,
      "ibly": 2462,
      "Ġterminal": 2463,
      "ove": 2464,
      "GR": 2465,
      "Ġassets": 2466,
      "Ġheight": 2467,
      "hel": 2468,
      "ailable": 2469,
      "space": 2470,
      "core": 2471,
      "hen": 2472,
      "['": 2473,
      "Ġfill": 2474,
      "create": 2475,
      "Ġmade": 2476,
      "27": 2477,
      "ĠFor": 2478,
      "cd": 2479,
      "kill": 2480,
      "ĊĠĠĠĠĠĠĠĠĠĠĠ": 2481,
      "Ġbinary": 2482,
      "steps": 2483,
      "ĠEx": 2484,
      "Ġsat": 2485,
      "ĠĠĠĠĠĠĠĠĠĠĠĠ": 2486,
      "class": 2487,
      "29": 2488,
      "Sp": 2489,
      "UI": 2490,
      "tain": 2491,
      "04": 2492,
      "block": 2493,
      "venv": 2494,
      "complete": 2495,
      "Ġfresh": 2496,
      "Ġevalu": 2497,
      "ught": 2498,
      "Ġinstead": 2499,
      "gba": 2500,
      "cture": 2501,
      "parse": 2502,
      "tle": 2503,
      "Ġfine": 2504,
      "Ġfold": 2505,
      "Ġextra": 2506,
      "Ġgave": 2507,
      "web": 2508,
      "Type": 2509,
      "ĠQ": 2510,
      "pyaot": 2511,
      "tic": 2512,
      "Ġgit": 2513,
      "istent": 2514,
      "Ġenough": 2515,
      "Ġdoesn": 2516,
      "ĠRE": 2517,
      "Ġworking": 2518,
      "Ġcard": 2519,
      "arts": 2520,
      "Ġonce": 2521,
      "Ġintegr": 2522,
      "Ġdete": 2523,
      "Ġhit": 2524,
      "Ġeffects": 2525,
      "Ġstop": 2526,
      "dict": 2527,
      "FI": 2528,
      "Ġcanvas": 2529,
      "AR": 2530,
      "Read": 2531,
      "Ġcache": 2532,
      "vide": 2533,
      "gether": 2534,
      "Ġevent": 2535,
      "append": 2536,
      "ware": 2537,
      "AME": 2538,
      "OP": 2539,
      "uild": 2540,
      "ĠĠĠĠĠĠĠĠĠĠĠĠĠĠĠĠĠĠĠĠĠĠĠĠĠĠĠĠĠĠĠĠĠĠĠĠĠĠĠĠĠĠĠĠĠĠĠĠĠĠĠĠĠĠĠĠĠĠĠĠĠĠĠĠĠĠĠĠĠĠĠĠĠĠĠĠĠĠĠĠĠĠĠĠĠĠĠĠĠĠĠĠĠĠĠĠĠĠĠĠĠĠĠĠĠĠĠĠĠĠĠĠ": 2541,
      "Shell": 2542,
      "rief": 2543,
      "ored": 2544,
      "98": 2545,
      "Ref": 2546,
      "Ġtiny": 2547,
      "input": 2548,
      "eturn": 2549,
      "ĠCall": 2550,
      "Ġapply": 2551,
      "Ġgenerated": 2552,
      "Ġnormal": 2553,
      "ament": 2554,
      "ĠSLERP": 2555,
      "Ġindicating": 2556,
      "What": 2557,
      "Ġflow": 2558,
      "Ġtogether": 2559,
      "Ġlayout": 2560,
      "Ġown": 2561,
      "ooking": 2562,
      "67": 2563,
      "roup": 2564,
      "Ġroot": 2565,
      "Ġlooks": 2566,
      "Ġreference": 2567,
      "Ġdidn": 2568,
      "ummar": 2569,
      "Ġide": 2570,
      "Ġword": 2571,
      "Ġrecall": 2572,
      "checkpoint": 2573,
      "Ġmany": 2574,
      "Ġoccurren": 2575,
      "PO": 2576,
      "part": 2577,
      "tot": 2578,
      "Ġneeds": 2579,
      "fully": 2580,
      "isf": 2581,
      "Ġsets": 2582,
      "aises": 2583,
      "Ġtake": 2584,
      "Ġprobe": 2585,
      "Ġparameter": 2586,
      "fix": 2587,
      "open": 2588,
      "ytes": 2589,
      "Ġfailures": 2590,
      "rit": 2591,
      "peed": 2592,
      "Ġchunk": 2593,
      "weak": 2594,
      "Ġimprove": 2595,
      "Ġbody": 2596,
      "select": 2597,
      "urnament": 2598,
      "Ġcontaining": 2599,
      "Ġaddition": 2600,
      "Ġheadless": 2601,
      "owerShell": 2602,
      "37": 2603,
      "erge": 2604,
      "Ġeven": 2605,
      "dition": 2606,
      "Ġnote": 2607,
      "Ġfolder": 2608,
      "ams": 2609,
      "Ġaddress": 2610,
      "97": 2611,
      "cf": 2612,
      "Ġguard": 2613,
      "kay": 2614,
      "vg": 2615,
      "Ġstand": 2616,
      "ĠâĢ¦": 2617,
      "prompts": 2618,
      "().": 2619,
      "---": 2620,
      "/-": 2621,
      "Ġautom": 2622,
      "Ġsuggests": 2623,
      "',\\": 2624,
      "Ġpadding": 2625,
      "Ġpasses": 2626,
      "38": 2627,
      "ey": 2628,
      "Ġsections": 2629,
      "\\\\|": 2630,
      "ĠPowerShell": 2631,
      "Ġquant": 2632,
      "btn": 2633,
      "Ġremain": 2634,
      "Ġgrid": 2635,
      "ama": 2636,
      "Ġquality": 2637,
      "sub": 2638,
      "Ġprints": 2639,
      "Ġsatisf": 2640,
      "ob": 2641,
      "Ġappears": 2642,
      "ĠAlso": 2643,
      "Ġinsert": 2644,
      "Ġitself": 2645,
      "Ġwarning": 2646,
      "other": 2647,
      "255": 2648,
      "State": 2649,
      "tax": 2650,
      "Ġbrief": 2651,
      "ached": 2652,
      "Ġbuilt": 2653,
      "ES": 2654,
      "Ġpython": 2655,
      "\\\";\\": 2656,
      "Ġappl": 2657,
      "Ġdiagno": 2658,
      "br": 2659,
      "Ġ()": 2660,
      "ically": 2661,
      "Ġcondition": 2662,
      "Ġnothing": 2663,
      "eve": 2664,
      "tok": 2665,
      "Ġmodification": 2666,
      "journal": 2667,
      "Ġsafe": 2668,
      "http": 2669,
      "sn": 2670,
      "Ġbug": 2671,
      "item": 2672,
      "ĠGLI": 2673,
      "weep": 2674,
      "ysics": 2675,
      "git": 2676,
      "Ġ`_": 2677,
      "Ġready": 2678,
      "cale": 2679,
      "Ġtempor": 2680,
      "Mesh": 2681,
      "word": 2682,
      "unc": 2683,
      "abled": 2684,
      "ĠMythosMini": 2685,
      "value": 2686,
      "allees": 2687,
      "':": 2688,
      "Users": 2689,
      "wen": 2690,
      "Ġtweak": 2691,
      "seed": 2692,
      "ĠResearch": 2693,
      "Ġheader": 2694,
      "07": 2695,
      "LO": 2696,
      "dig": 2697,
      "Ġseconds": 2698,
      "Ġsolid": 2699,
      "istory": 2700,
      "Ġnecessary": 2701,
      "ending": 2702,
      "AS": 2703,
      "ither": 2704,
      "Ġstarted": 2705,
      "[:": 2706,
      "Ġchampion": 2707,
      "Ġtalker": 2708,
      "turn": 2709,
      "Po": 2710,
      "Ġassistant": 2711,
      "Ġmatching": 2712,
      "For": 2713,
      "Ġnames": 2714,
      "util": 2715,
      "Ġcontainer": 2716,
      "Ġsaved": 2717,
      "Callees": 2718,
      "ava": 2719,
      "sive": 2720,
      "Ġsent": 2721,
      "Ġms": 2722,
      "tem": 2723,
      "Ġapproach": 2724,
      "Ġespecially": 2725,
      "Ġsaw": 2726,
      "Ġ31": 2727,
      "ferent": 2728,
      "plication": 2729,
      "Ġbased": 2730,
      "Ġfields": 2731,
      "Last": 2732,
      "Ġproduce": 2733,
      "aranr": 2734,
      "fail": 2735,
      "ĠY": 2736,
      "Ġpr": 2737,
      "Ġscal": 2738,
      "irection": 2739,
      "Ġcause": 2740,
      "avaScript": 2741,
      "Ġavailable": 2742,
      "ateg": 2743,
      "Ġlevel": 2744,
      "encies": 2745,
      "Ġrows": 2746,
      "Ġfeedback": 2747,
      "Edit": 2748,
      "OT": 2749,
      "Okay": 2750,
      "Par": 2751,
      "execut": 2752,
      "script": 2753,
      "review": 2754,
      "Ġelsewhere": 2755,
      "ED": 2756,
      "ade": 2757,
      "device": 2758,
      "export": 2759,
      "Ġmeans": 2760,
      "'\\": 2761,
      "ĠCh": 2762,
      "lines": 2763,
      "Ġmerg": 2764,
      "adi": 2765,
      "Ġtrack": 2766,
      "ĠNode": 2767,
      "ĠĊĠĠ": 2768,
      "plit": 2769,
      "ĠJavaScript": 2770,
      "ias": 2771,
      "Ġepo": 2772,
      "Ġpoints": 2773,
      "Ġfallback": 2774,
      "Ġepoch": 2775,
      "ional": 2776,
      "**:": 2777,
      "query": 2778,
      "air": 2779,
      "txt": 2780,
      "Ġdefines": 2781,
      "Ġcheckpoints": 2782,
      "Ġduring": 2783,
      "keys": 2784,
      "`.\\": 2785,
      "Ġtargeting": 2786,
      "Ġsurround": 2787,
      "Ġtemporary": 2788,
      "fp": 2789,
      "Ġtensor": 2790,
      "arning": 2791,
      "chat": 2792,
      "Ġretri": 2793,
      "phase": 2794,
      "Ġcomponent": 2795,
      "attention": 2796,
      "Ġretry": 2797,
      "sequ": 2798,
      "Ġproble": 2799,
      "chives": 2800,
      "ording": 2801,
      "Ġincre": 2802,
      "Ġprovide": 2803,
      "Ġscore": 2804,
      "Socket": 2805,
      "Ġreasoning": 2806,
      "Callers": 2807,
      "MO": 2808,
      "ense": 2809,
      "Ġfree": 2810,
      "apers": 2811,
      "neon": 2812,
      "Ġdifferent": 2813,
      "Ġagainst": 2814,
      "rink": 2815,
      "94": 2816,
      "otun": 2817,
      "Ġreset": 2818,
      "Ġbyte": 2819,
      "Ġwrap": 2820,
      "Re": 2821,
      "clock": 2822,
      "event": 2823,
      "inner": 2824,
      "asure": 2825,
      "iform": 2826,
      "Ġext": 2827,
      "ĠRe": 2828,
      "Ġdetails": 2829,
      "En": 2830,
      "Ġleft": 2831,
      "Ġsnaps": 2832,
      "cast": 2833,
      "color": 2834,
      "))\\": 2835,
      "Ġprompts": 2836,
      "Ġchild": 2837,
      "Ġmaking": 2838,
      "Ġrules": 2839,
      "Ġlow": 2840,
      "ween": 2841,
      "Ġensures": 2842,
      "Ġrenderer": 2843,
      "oth": 2844,
      "scre": 2845,
      "ystem": 2846,
      "stdout": 2847,
      "Ġfoc": 2848,
      "als": 2849,
      "Ġscale": 2850,
      "abs": 2851,
      "ĠURL": 2852,
      "Proceed": 2853,
      "Before": 2854,
      "erp": 2855,
      "apping": 2856,
      "Ġsyntax": 2857,
      "rem": 2858,
      "ĠĠĠĠĠĠ": 2859,
      "Ġfast": 2860,
      "Ġhidden": 2861,
      "++)": 2862,
      "57": 2863,
      "Ġred": 2864,
      "opt": 2865,
      "argin": 2866,
      "Ġarchite": 2867,
      "31": 2868,
      "Archives": 2869,
      "Ġmicro": 2870,
      "agents": 2871,
      "aph": 2872,
      "Ġ28": 2873,
      "ĠUsing": 2874,
      "nown": 2875,
      "init": 2876,
      "Ġski": 2877,
      "cedural": 2878,
      "Ġoffset": 2879,
      "Mat": 2880,
      "Ġsurrounding": 2881,
      "Purpose": 2882,
      "Ġpers": 2883,
      "Ġeither": 2884,
      "Ġrather": 2885,
      "move": 2886,
      "Ġlonger": 2887,
      "atically": 2888,
      "localhost": 2889,
      "41": 2890,
      "Element": 2891,
      "aight": 2892,
      "match": 2893,
      "Ġcaptured": 2894,
      "Ġshared": 2895,
      "Ġcomplet": 2896,
      "preview": 2897,
      "Ġseparate": 2898,
      "IT": 2899,
      "body": 2900,
      "arge": 2901,
      "ayload": 2902,
      "Ġanything": 2903,
      "Ġplacehold": 2904,
      "Ġpossibly": 2905,
      "Side": 2906,
      "bg": 2907,
      "Ġtag": 2908,
      "Ġconfirmed": 2909,
      "Ġtransform": 2910,
      "Ġwritten": 2911,
      "stream": 2912,
      "ĠAll": 2913,
      "andidate": 2914,
      "float": 2915,
      "includ": 2916,
      "Ġmir": 2917,
      "Ġminim": 2918,
      "Ġmonitor": 2919,
      "68": 2920,
      "ock": 2921,
      "target": 2922,
      "ffect": 2923,
      "ĠCalls": 2924,
      "extr": 2925,
      "Ġrough": 2926,
      "Ġsparse": 2927,
      "Ġscreenshots": 2928,
      "eturns": 2929,
      "CK": 2930,
      "anged": 2931,
      "Ġactive": 2932,
      "Ġwarm": 2933,
      "Ġ},": 2934,
      "ĠAI": 2935,
      "ustom": 2936,
      "Ġsummar": 2937,
      "Ġdr": 2938,
      "Ġchanged": 2939,
      "Ġdict": 2940,
      "cp": 2941,
      "gine": 2942,
      "Ġconstants": 2943,
      "angu": 2944,
      "mode": 2945,
      "pi": 2946,
      "Ġtoo": 2947,
      "Ġinteractive": 2948,
      "ADME": 2949,
      "Ġmodifications": 2950,
      "39": 2951,
      "Select": 2952,
      "Ġreferences": 2953,
      "Ġ!==": 2954,
      "Ġmirror": 2955,
      "Ġreload": 2956,
      "\\\");\\": 2957,
      "Ġensuring": 2958,
      "Ġindexer": 2959,
      "70": 2960,
      "ges": 2961,
      "print": 2962,
      "static": 2963,
      "anguage": 2964,
      "Ġnam": 2965,
      "ĠCom": 2966,
      "AIArchives": 2967,
      "strike": 2968,
      "compound": 2969,
      "first": 2970,
      "rel": 2971,
      "Ġpane": 2972,
      "Ġ11": 2973,
      "Ġmypy": 2974,
      "acher": 2975,
      "ability": 2976,
      "ĠClaude": 2977,
      "Ġ50": 2978,
      "msg": 2979,
      "izing": 2980,
      "VG": 2981,
      "Ġrange": 2982,
      "Ġ24": 2983,
      "Ġshot": 2984,
      "ference": 2985,
      "ĠWebSocket": 2986,
      "adius": 2987,
      "urb": 2988,
      "Ġmarkdown": 2989,
      "ĠTherefore": 2990,
      "Ġhelp": 2991,
      "(`": 2992,
      "changed": 2993,
      "Ġ<<": 2994,
      "Ġotherwise": 2995,
      "Ġplaytest": 2996,
      "Ġdefinitions": 2997,
      "....": 2998,
      "ĠFP": 2999,
      "Ġparse": 3000,
      "Ġstraight": 3001,
      "Ġgot": 3002,
      "Ġsuccessfully": 3003,
      "Log": 3004,
      "ses": 3005,
      "Ġselection": 3006,
      "Ġreported": 3007,
      "izes": 3008,
      "button": 3009,
      ".).": 3010,
      "aise": 3011,
      "shot": 3012,
      "Ġbudget": 3013,
      "transformer": 3014,
      "Ġcounts": 3015,
      "ASK": 3016,
      "ider": 3017,
      "ĠOOM": 3018,
      "Ġapplied": 3019,
      "gent": 3020,
      "Ġaccept": 3021,
      "modules": 3022,
      "ĠCalled": 3023,
      "sm": 3024,
      "illation": 3025,
      "world": 3026,
      "Ġbetween": 3027,
      "Ġsequence": 3028,
      "Ġrep": 3029,
      "Ġexport": 3030,
      "ends": 3031,
      "cores": 3032,
      "Ġfound": 3033,
      "Ġ>=": 3034,
      "save": 3035,
      "Ġlogg": 3036,
      "Ġ58": 3037,
      "');": 3038,
      "label": 3039,
      "Ġruntime": 3040,
      "Ġrow": 3041,
      "LA": 3042,
      "unce": 3043,
      "ĠFinally": 3044,
      "Ġreads": 3045,
      "Ġeffort": 3046,
      "iel": 3047,
      "Ġcod": 3048,
      "Ġdeb": 3049,
      "progress": 3050,
      "Content": 3051,
      "Ġdesign": 3052,
      "Ġskipped": 3053,
      "Ġbit": 3054,
      "Ġmaterial": 3055,
      "hose": 3056,
      "Ġhere": 3057,
      "Ġbottom": 3058,
      "Ġabove": 3059,
      "css": 3060,
      "Ġrgba": 3061,
      "Ġscripts": 3062,
      "Ġkeys": 3063,
      "Ġinstalled": 3064,
      "rain": 3065,
      "Ġ%": 3066,
      "ĠTUI": 3067,
      "emory": 3068,
      "Ġoptimizer": 3069,
      "total": 3070,
      "bit": 3071,
      "cud": 3072,
      "Ġaccording": 3073,
      "cuda": 3074,
      "Geometry": 3075,
      "ision": 3076,
      "Ġstroke": 3077,
      "respon": 3078,
      "Ġstrings": 3079,
      "Ġhy": 3080,
      "Ġperhaps": 3081,
      "archives": 3082,
      "Ġinvok": 3083,
      "Next": 3084,
      "dataset": 3085,
      "sk": 3086,
      "Ġpaper": 3087,
      "Ġ`--": 3088,
      "Ġcompil": 3089,
      "58": 3090,
      "Ġ)\\": 3091,
      "Ġpush": 3092,
      "Ġlarge": 3093,
      "ĠAR": 3094,
      "Ġ300": 3095,
      "ĠNow": 3096,
      "Ġprecise": 3097,
      "Ġloops": 3098,
      "sft": 3099,
      "Ġlabel": 3100,
      "Ġcopy": 3101,
      "Ġperformance": 3102,
      "Ġsky": 3103,
      "ases": 3104,
      "neonstrike": 3105,
      "Ġnone": 3106,
      "Ġanal": 3107,
      "Ġdescribed": 3108,
      "Co": 3109,
      "inter": 3110,
      "Ġlogits": 3111,
      "ĠMake": 3112,
      "Ġloading": 3113,
      "https": 3114,
      "21": 3115,
      "ax": 3116,
      "Ġcatch": 3117,
      "Ġwithin": 3118,
      "odelConfig": 3119,
      "ynam": 3120,
      "Ġexplain": 3121,
      "'m": 3122,
      "Ġsweep": 3123,
      "sd": 3124,
      "Ġtrigg": 3125,
      "ĠPaperclip": 3126,
      "Ġrespond": 3127,
      "light": 3128,
      "Ġanother": 3129,
      "Ġpri": 3130,
      "Ġnode": 3131,
      "Ġdevice": 3132,
      "update": 3133,
      "></": 3134,
      "only": 3135,
      "Ġraise": 3136,
      "Ġorder": 3137,
      "Ġthroughput": 3138,
      "Ġcenter": 3139,
      "([": 3140,
      "API": 3141,
      "cord": 3142,
      "site": 3143,
      "var": 3144,
      "Ġmargin": 3145,
      "any": 3146,
      "aN": 3147,
      "miss": 3148,
      ").\\": 3149,
      "rome": 3150,
      "acts": 3151,
      "ĠCo": 3152,
      "Ġkind": 3153,
      "Ġjoin": 3154,
      "Ġitems": 3155,
      "]`": 3156,
      "â£": 3157,
      "ender": 3158,
      "tmux": 3159,
      "Ġpaths": 3160,
      "Ġicon": 3161,
      "Ġtable": 3162,
      "inf": 3163,
      "Ġstarts": 3164,
      "pth": 3165,
      "ĠEn": 3166,
      "';": 3167,
      ".__": 3168,
      "Ġjson": 3169,
      "ifier": 3170,
      "Ġfailing": 3171,
      "Ġfully": 3172,
      "queue": 3173,
      "execute": 3174,
      "59": 3175,
      "gl": 3176,
      "pen": 3177,
      "xiv": 3178,
      "termin": 3179,
      "parent": 3180,
      "nect": 3181,
      "Search": 3182,
      "Com": 3183,
      "`:": 3184,
      "Ġdt": 3185,
      "Ġ29": 3186,
      "apters": 3187,
      "Ġunchanged": 3188,
      "Ġfixes": 3189,
      "Ġfront": 3190,
      "bb": 3191,
      "â¡": 3192,
      "plug": 3193,
      "Ġdele": 3194,
      "Ġsetup": 3195,
      "Ġinstruction": 3196,
      "sequent": 3197,
      "Color": 3198,
      "gment": 3199,
      "title": 3200,
      "Ġtuple": 3201,
      "Ġfloor": 3202,
      "ĠBy": 3203,
      "Ġtried": 3204,
      "snap": 3205,
      "Ġconstant": 3206,
      "ĠOn": 3207,
      "shadow": 3208,
      "sol": 3209,
      "Ġrandom": 3210,
      "Ġexam": 3211,
      "plate": 3212,
      "Ġsched": 3213,
      "Ġshape": 3214,
      "Back": 3215,
      "num": 3216,
      "svg": 3217,
      "ĠPro": 3218,
      "Ġconsistent": 3219,
      "Ġpurpose": 3220,
      "vol": 3221,
      "Ġcost": 3222,
      "Ġprobably": 3223,
      "Ġdependencies": 3224,
      "Ġpreserving": 3225,
      "Ġemit": 3226,
      "asy": 3227,
      "Ġexcept": 3228,
      "Ġvisible": 3229,
      "Loc": 3230,
      "Ġcombin": 3231,
      "Ġaccuracy": 3232,
      "ION": 3233,
      "ou": 3234,
      "pdate": 3235,
      "Ġdrop": 3236,
      "ĠThose": 3237,
      "ular": 3238,
      "empt": 3239,
      "Ġintended": 3240,
      "Ġgenerate": 3241,
      "Ġproblem": 3242,
      "Ġsnapshot": 3243,
      "df": 3244,
      "arxiv": 3245,
      "Ġassign": 3246,
      "================================": 3247,
      "DEL": 3248,
      "derr": 3249,
      "Ġelements": 3250,
      "Looking": 3251,
      "cing": 3252,
      "anel": 3253,
      "click": 3254,
      "Ġbuff": 3255,
      "FF": 3256,
      "PA": 3257,
      "Ġbackend": 3258,
      "digit": 3259,
      "Parameters": 3260,
      "ledge": 3261,
      "/*": 3262,
      "runs": 3263,
      "ixed": 3264,
      "Ġresolve": 3265,
      "Returns": 3266,
      "none": 3267,
      "atures": 3268,
      "ĠSVG": 3269,
      "tract": 3270,
      "ĠNaN": 3271,
      "ĠLo": 3272,
      "drop": 3273,
      "eval": 3274,
      ".)": 3275,
      "46": 3276,
      "Raises": 3277,
      "aim": 3278,
      "org": 3279,
      "ential": 3280,
      "Ġmoving": 3281,
      "Style": 3282,
      "Ġaccordingly": 3283,
      "Li": 3284,
      "Sh": 3285,
      "iffusion": 3286,
      "Ġhig": 3287,
      "Ġweapon": 3288,
      "hidden": 3289,
      "Ġpayload": 3290,
      "Ġrepe": 3291,
      "Ġexecution": 3292,
      "Ġmis": 3293,
      "\\\").": 3294,
      "channel": 3295,
      "emma": 3296,
      "----------": 3297,
      "Ġhttp": 3298,
      "Selector": 3299,
      "87": 3300,
      "norm": 3301,
      "Ġhint": 3302,
      "ĠAGENTS": 3303,
      "background": 3304,
      "Ġbuilds": 3305,
      "document": 3306,
      "Ġrounds": 3307,
      "ribute": 3308,
      "Ġq": 3309,
      "Ġenc": 3310,
      "Ġpick": 3311,
      "Ġnear": 3312,
      "('#": 3313,
      "Ġincluding": 3314,
      "Line": 3315,
      "^^": 3316,
      "ily": 3317,
      "real": 3318,
      "Ġinser": 3319,
      "ĠCon": 3320,
      "settings": 3321,
      "TTP": 3322,
      "compile": 3323,
      "handoff": 3324,
      "dm": 3325,
      "oder": 3326,
      "baseline": 3327,
      "\".": 3328,
      "Ġgap": 3329,
      "physics": 3330,
      "lind": 3331,
      "}`": 3332,
      "ished": 3333,
      "udit": 3334,
      "Ġnoise": 3335,
      "Ġconfirmation": 3336,
      "ift": 3337,
      "Ġdead": 3338,
      "Ġunit": 3339,
      "1376": 3340,
      "DI": 3341,
      "ices": 3342,
      "Ġcalled": 3343,
      "Ġspawn": 3344,
      "421376": 3345,
      "ets": 3346,
      "ids": 3347,
      "ters": 3348,
      "ĠSFT": 3349,
      "score": 3350,
      "Ġcharacters": 3351,
      "Ġoccurrence": 3352,
      "cc": 3353,
      "with": 3354,
      "Ġsave": 3355,
      "Ġnav": 3356,
      "ultr": 3357,
      "Ġcover": 3358,
      "Ġarray": 3359,
      "Ġplaceholder": 3360,
      "stics": 3361,
      "ors": 3362,
      "Ġstay": 3363,
      "ĠThey": 3364,
      "await": 3365,
      "Ġsuch": 3366,
      "Ġkeeps": 3367,
      "Ġpair": 3368,
      "LiMP": 3369,
      "Agent": 3370,
      "bd": 3371,
      "merg": 3372,
      "ron": 3373,
      "Ġtitle": 3374,
      "Ġpapers": 3375,
      "Ġobser": 3376,
      "Ġiteration": 3377,
      "Ġoperation": 3378,
      "cfg": 3379,
      "lta": 3380,
      "Ġ----------": 3381,
      "Ġcare": 3382,
      "Ġcompound": 3383,
      "49": 3384,
      "Name": 3385,
      "cy": 3386,
      "floor": 3387,
      "hero": 3388,
      "ref": 3389,
      "entry": 3390,
      "completed": 3391,
      "Ġsurface": 3392,
      "hud": 3393,
      "Ġaffect": 3394,
      "anim": 3395,
      "quant": 3396,
      "Ġ*/": 3397,
      "Ġretrieve": 3398,
      "3100": 3399,
      "Ġresearch": 3400,
      "Ġmeasure": 3401,
      "ned": 3402,
      "Ġclaude": 3403,
      "Ġupdating": 3404,
      "parameters": 3405,
      "empty": 3406,
      "Ġsubsequent": 3407,
      "lobal": 3408,
      "86": 3409,
      "><": 3410,
      "rol": 3411,
      "entially": 3412,
      "llama": 3413,
      "chn": 3414,
      "Ġcurl": 3415,
      "ĠREADME": 3416,
      ",.": 3417,
      "84": 3418,
      "af": 3419,
      "wd": 3420,
      "Ġinspected": 3421,
      ")</": 3422,
      "02": 3423,
      "Claude": 3424,
      "stroke": 3425,
      "ĠBLiMP": 3426,
      "Ġstarting": 3427,
      "draw": 3428,
      "ece": 3429,
      "Ġtournament": 3430,
      "Ġmenu": 3431,
      "veal": 3432,
      "ĠGAME": 3433,
      "Ġlinear": 3434,
      "apped": 3435,
      "Ġinde": 3436,
      "Ġgiven": 3437,
      "umn": 3438,
      "Ġshowed": 3439,
      "Ġhasn": 3440,
      "Ġgradient": 3441,
      "Ġquestion": 3442,
      "OR": 3443,
      "TER": 3444,
      "ty": 3445,
      "zero": 3446,
      "Ġspeed": 3447,
      "Ġdtype": 3448,
      "Ġ64": 3449,
      "gram": 3450,
      "PAT": 3451,
      "scores": 3452,
      "inct": 3453,
      "Ġtrunc": 3454,
      "03": 3455,
      "Res": 3456,
      "Ġstdout": 3457,
      "throp": 3458,
      "Ġ<=": 3459,
      "Ġrole": 3460,
      "Ġsaf": 3461,
      "npm": 3462,
      "(\"": 3463,
      "Preview": 3464,
      "âľ": 3465,
      "ctx": 3466,
      "Ġstage": 3467,
      "Ġrecur": 3468,
      "Ġends": 3469,
      "Background": 3470,
      ")`.": 3471,
      "ĠHTTP": 3472,
      "Ġfinally": 3473,
      "Ġpiece": 3474,
      "Ġdiff": 3475,
      "From": 3476,
      "ber": 3477,
      "Ġreview": 3478,
      "ĠPath": 3479,
      "Ġpointer": 3480,
      "Ġteacher": 3481,
      "Ass": 3482,
      "That": 3483,
      "Ġfinish": 3484,
      "Ġspecifically": 3485,
      "Ġavatar": 3486,
      "An": 3487,
      "DS": 3488,
      "Ġfollowing": 3489,
      "canvas": 3490,
      "gg": 3491,
      "Ġhapp": 3492,
      "items": 3493,
      "Ġcausing": 3494,
      "Ġlaunched": 3495,
      "package": 3496,
      "height": 3497,
      "Ġcustom": 3498,
      "Ġseen": 3499,
      "Ġstandard": 3500,
      "PE": 3501,
      "rics": 3502,
      "Ġsmooth": 3503,
      "Ġarchitecture": 3504,
      "EL": 3505,
      "JS": 3506,
      "clo": 3507,
      "sample": 3508,
      "Ġdat": 3509,
      "char": 3510,
      "Ġrunner": 3511,
      "Ġintern": 3512,
      "Ġdetailed": 3513,
      "tui": 3514,
      "hema": 3515,
      "feedback": 3516,
      "thropic": 3517,
      "Ġtre": 3518,
      "Ġlanguage": 3519,
      "Ġenqueue": 3520,
      "until": 3521,
      "Ġmultiple": 3522,
      "Ġtells": 3523,
      "62": 3524,
      "oring": 3525,
      "Ġrece": 3526,
      "reshold": 3527,
      "Ġleast": 3528,
      "Ġreading": 3529,
      "Ġlisted": 3530,
      "Ġtexture": 3531,
      "pression": 3532,
      "blx": 3533,
      "rende": 3534,
      "Ġpublic": 3535,
      "âĢĵ": 3536,
      "Ġnp": 3537,
      "Ġthing": 3538,
      "cont": 3539,
      "Ġexecuted": 3540,
      "Ġarguments": 3541,
      "Ġmsg": 3542,
      "Ġprior": 3543,
      "fx": 3544,
      "lass": 3545,
      "sys": 3546,
      "Ġadds": 3547,
      "Ġphr": 3548,
      "ell": 3549,
      "hp": 3550,
      "mun": 3551,
      "Ġprinted": 3552,
      "Ġjob": 3553,
      "Ġdetect": 3554,
      "(()": 3555,
      "KE": 3556,
      "events": 3557,
      "Ġcaptures": 3558,
      "shape": 3559,
      "Check": 3560,
      "benchmark": 3561,
      "iance": 3562,
      "uplic": 3563,
      "Ġtak": 3564,
      "lease": 3565,
      "Ġoverw": 3566,
      "OK": 3567,
      "spec": 3568,
      "sleep": 3569,
      "Ġlink": 3570,
      "Ġdeep": 3571,
      "aveat": 3572,
      "Ġchecking": 3573,
      "Ġoptional": 3574,
      "Linear": 3575,
      "44": 3576,
      "{\\": 3577,
      "Ġdiv": 3578,
      "Ġblocked": 3579,
      "icky": 3580,
      "Ġgood": 3581,
      "slice": 3582,
      "Ġshader": 3583,
      "Ġtechn": 3584,
      "ĠĠĠĠĠĠĠĠĠĠĠĠĠĠĠĠĠĠĠĠĠĠĠĠĠĠĠĠĠĠĠĠĠĠĠĠĠĠĠĠĠĠĠĠĠĠĠĠĠĠĠĠĠĠĠĠĠĠĠĠĠĠĠĠĠĠĠĠĠĠĠĠĠĠĠĠĠĠĠĠĠĠĠĠĠĠĠĠĠĠĠĠĠĠĠĠĠĠĠĠĠĠĠĠĠĠĠĠĠĠĠĠĠĠĠĠĠĠĠĠĠĠĠĠ": 3585,
      "MODEL": 3586,
      "After": 3587,
      "File": 3588,
      "TH": 3589,
      "incomplete": 3590,
      "Ġcreates": 3591,
      "77": 3592,
      "Ġcross": 3593,
      "toolu": 3594,
      "Ġwell": 3595,
      "Ġcontinu": 3596,
      "including": 3597,
      "Ġmirrors": 3598,
      "08": 3599,
      "?:": 3600,
      "ently": 3601,
      "how": 3602,
      "tocol": 3603,
      "Ġlocation": 3604,
      "Ġstraightforward": 3605,
      "done": 3606,
      "Ġslow": 3607,
      "instance": 3608,
      "Ġrendered": 3609,
      "Ġcombined": 3610,
      "iring": 3611,
      "Ġplain": 3612,
      "running": 3613,
      "Ġfails": 3614,
      "Ġconsider": 3615,
      "Ġclose": 3616,
      "Timeout": 3617,
      "scale": 3618,
      "Ġbytes": 3619,
      "Ġlives": 3620,
      "','": 3621,
      "Ġhold": 3622,
      "Ġtransformer": 3623,
      "Ġideas": 3624,
      "Ġscaling": 3625,
      "']": 3626,
      "Mon": 3627,
      "Ġevents": 3628,
      "Ġscroll": 3629,
      "Ġquickly": 3630,
      "Ġvariables": 3631,
      "sor": 3632,
      "velo": 3633,
      "epo": 3634,
      "ived": 3635,
      "Ġformatting": 3636,
      "Ġwaiting": 3637,
      "Ġmultiplayer": 3638,
      "filter": 3639,
      "ia": 3640,
      "rote": 3641,
      "Ġargs": 3642,
      "UDA": 3643,
      "pol": 3644,
      "way": 3645,
      "îĤ": 3646,
      "Ġsample": 3647,
      "Ġcal": 3648,
      "Ġfollowed": 3649,
      "Ġdistillation": 3650,
      "rols": 3651,
      "anner": 3652,
      "entation": 3653,
      "Ġshowing": 3654,
      "Ġsimply": 3655,
      "Ġcharacter": 3656,
      "Ġ<<'": 3657,
      "Ġpe": 3658,
      "Ġlarg": 3659,
      "Ġprocedural": 3660,
      "Ġtesting": 3661,
      "ĠHUD": 3662,
      "Ġguild": 3663,
      "generation": 3664,
      "based": 3665,
      "Ġgeometry": 3666,
      "Ġ200": 3667,
      "Ġ40": 3668,
      "ĠWhen": 3669,
      "Ġhandles": 3670,
      "ared": 3671,
      "uture": 3672,
      "Ġrespect": 3673,
      "eces": 3674,
      "Ġadditional": 3675,
      "\")": 3676,
      "83": 3677,
      "din": 3678,
      "Ġgives": 3679,
      "Ġhistory": 3680,
      "aint": 3681,
      "vider": 3682,
      "ĠTrue": 3683,
      "'`": 3684,
      "Tensor": 3685,
      "tuple": 3686,
      "ond": 3687,
      "ish": 3688,
      "Ġhero": 3689,
      "Ġearly": 3690,
      "Ġtypical": 3691,
      "43": 3692,
      "FA": 3693,
      "`;": 3694,
      "messages": 3695,
      "loc": 3696,
      "Ġbelow": 3697,
      "ĠEnter": 3698,
      "sin": 3699,
      "alv": 3700,
      "result": 3701,
      "Ġfour": 3702,
      "Ġtransition": 3703,
      "alue": 3704,
      "arlier": 3705,
      "Ġgroup": 3706,
      "ulate": 3707,
      "Ġseem": 3708,
      "layers": 3709,
      "Ġimmediately": 3710,
      "plugins": 3711,
      "300": 3712,
      "nn": 3713,
      "aclass": 3714,
      "pping": 3715,
      "udent": 3716,
      "ĠLet": 3717,
      "Ġscreen": 3718,
      "Ġhigher": 3719,
      "CA": 3720,
      "lin": 3721,
      "live": 3722,
      "Ġnet": 3723,
      "Ġstats": 3724,
      "ading": 3725,
      "umer": 3726,
      "exp": 3727,
      "Ġ[-": 3728,
      "Ġfinishes": 3729,
      "FILE": 3730,
      "related": 3731,
      "Ġhyper": 3732,
      "False": 3733,
      "utting": 3734,
      "Ġ{}": 3735,
      "ĠUse": 3736,
      "limited": 3737,
      "Ġhttps": 3738,
      "Ġsatisfy": 3739,
      "Num": 3740,
      "ÃĹ": 3741,
      "olve": 3742,
      "89": 3743,
      "Fr": 3744,
      "GLI": 3745,
      "jor": 3746,
      "Ġutil": 3747,
      "Ġfact": 3748,
      "Ġwater": 3749,
      "verify": 3750,
      "Ġconfid": 3751,
      "Ġsetting": 3752,
      "Ġfunctionality": 3753,
      "Ġbuilding": 3754,
      "Ġsuccessful": 3755,
      "Ġfil": 3756,
      "alog": 3757,
      "Ġexample": 3758,
      "===": 3759,
      "nounce": 3760,
      "Ġnamed": 3761,
      "Tok": 3762,
      "case": 3763,
      "last": 3764,
      "jects": 3765,
      "Ġremains": 3766,
      "otune": 3767,
      "OL": 3768,
      "go": 3769,
      "tho": 3770,
      "final": 3771,
      "module": 3772,
      "nprint": 3773,
      "Ġbetter": 3774,
      "ming": 3775,
      "Ġtree": 3776,
      "acc": 3777,
      "accent": 3778,
      "ĠCPU": 3779,
      "come": 3780,
      "Ġcoll": 3781,
      "Ġopacity": 3782,
      "ĠIDs": 3783,
      "Listener": 3784,
      "Ġsmoke": 3785,
      "ĠARC": 3786,
      "Data": 3787,
      "man": 3788,
      "radius": 3789,
      "Ġblob": 3790,
      "url": 3791,
      "Ġray": 3792,
      "term": 3793,
      "theme": 3794,
      "\\\"></": 3795,
      "Ġtimes": 3796,
      "Event": 3797,
      "memory": 3798,
      "Ġbias": 3799,
      "Ġconvers": 3800,
      "ruff": 3801,
      "aff": 3802,
      "eer": 3803,
      "itive": 3804,
      "Ġpending": 3805,
      "Ġengine": 3806,
      "Ġstreaming": 3807,
      "Ġ*/\\": 3808,
      "73": 3809,
      "AGENTS": 3810,
      "ires": 3811,
      "ique": 3812,
      "reload": 3813,
      "usage": 3814,
      "Ġstays": 3815,
      "ides": 3816,
      "Ġ22": 3817,
      "ocab": 3818,
      "ek": 3819,
      "reate": 3820,
      "context": 3821,
      "issues": 3822,
      "vidence": 3823,
      "render": 3824,
      "cor": 3825,
      "tation": 3826,
      "Ġpaperclip": 3827,
      "Ġinfo": 3828,
      "Ġlists": 3829,
      "Ġslight": 3830,
      "Ġcomponents": 3831,
      "Assistant": 3832,
      "īĪ": 3833,
      "err": 3834,
      "TTTT": 3835,
      "Ġnavig": 3836,
      "alvage": 3837,
      "./": 3838,
      "late": 3839,
      "Ġduplic": 3840,
      "Ġgroq": 3841,
      "embed": 3842,
      "Ġsubst": 3843,
      "effort": 3844,
      "Glint": 3845,
      "NG": 3846,
      "ĠMy": 3847,
      "Ġsessions": 3848,
      "ĠAny": 3849,
      "71": 3850,
      "rblx": 3851,
      "Ġreports": 3852,
      "Ġperformed": 3853,
      "Ġdiffusion": 3854,
      "Ġreasonable": 3855,
      "81": 3856,
      "Ġess": 3857,
      "Ġwon": 3858,
      "Ġseq": 3859,
      "Ġparsing": 3860,
      "sparse": 3861,
      "coun": 3862,
      "Ġpreviously": 3863,
      "Ġswitch": 3864,
      "Ġcalc": 3865,
      "pane": 3866,
      "ways": 3867,
      "â¢": 3868,
      "ert": 3869,
      "Ġdirectories": 3870,
      "Ġattempted": 3871,
      "Pos": 3872,
      "93": 3873,
      "GB": 3874,
      "Ġok": 3875,
      "Ġground": 3876,
      "Ġdevelo": 3877,
      "ired": 3878,
      "jsonl": 3879,
      "hor": 3880,
      "Ġreveal": 3881,
      "Ġstack": 3882,
      "urces": 3883,
      "format": 3884,
      "Ġgeneric": 3885,
      "Ġframes": 3886,
      "92": 3887,
      "pet": 3888,
      "delay": 3889,
      "Ġcontract": 3890,
      "Ġproduced": 3891,
      "aves": 3892,
      "Ġletter": 3893,
      "Ġpartic": 3894,
      "Ġclearly": 3895,
      "default": 3896,
      "Part": 3897,
      "Rect": 3898,
      "actions": 3899,
      "leaderboard": 3900,
      "ĠâĢ¢": 3901,
      "Ġ26": 3902,
      "ield": 3903,
      "sdft": 3904,
      ":',": 3905,
      "UN": 3906,
      "nEOF": 3907,
      "ze": 3908,
      "Ġsil": 3909,
      "Ġcy": 3910,
      "Ġ(\\": 3911,
      "\\\";": 3912,
      "120": 3913,
      "Key": 3914,
      "best": 3915,
      "ium": 3916,
      "Ġevidence": 3917,
      "Ġfunctional": 3918,
      "person": 3919,
      "Ġremoved": 3920,
      "Ġquestions": 3921,
      "By": 3922,
      "Ġsince": 3923,
      "Ġbat": 3924,
      "Ġded": 3925,
      "ĠThere": 3926,
      "ĠSe": 3927,
      "aving": 3928,
      "fillStyle": 3929,
      "âĸĪâĸĪâĸĪâĸĪâĸĪâĸĪâĸĪâĸĪâĸĪâĸĪâĸĪâĸĪâĸĪâĸĪâĸĪâĸĪ": 3930,
      "Ġlarger": 3931,
      "send": 3932,
      "talker": 3933,
      "reason": 3934,
      "arc": 3935,
      "arm": 3936,
      "Ġhad": 3937,
      "Ġclaim": 3938,
      "ious": 3939,
      "grid": 3940,
      "Ġ\\\"\\": 3941,
      "Ġroute": 3942,
      "Ġmetrics": 3943,
      "Ġmentions": 3944,
      "Ġdimens": 3945,
      "rites": 3946,
      "Ġam": 3947,
      "Ġdynam": 3948,
      "():\\": 3949,
      "Ġattempts": 3950,
      "Ġsignature": 3951,
      "Ġautomatically": 3952,
      "UL": 3953,
      "chan": 3954,
      "Ġappend": 3955,
      "Ġclamp": 3956,
      "Attention": 3957,
      "Ġminimal": 3958,
      "Map": 3959,
      "TASK": 3960,
      "bat": 3961,
      "pack": 3962,
      "Ġprop": 3963,
      "pute": 3964,
      "Ġdetermin": 3965,
      "Ġhook": 3966,
      "Ġcleanly": 3967,
      "Ġregex": 3968,
      "Ġprovides": 3969,
      "Ġbroad": 3970,
      "Ġwarnings": 3971,
      "epoch": 3972,
      "61": 3973,
      "Web": 3974,
      "pass": 3975,
      "vote": 3976,
      "}</": 3977,
      "Ġsays": 3978,
      "ening": 3979,
      "Ġmaps": 3980,
      "usic": 3981,
      "Ġnewly": 3982,
      "Ġlearning": 3983,
      "[]": 3984,
      "Ġsun": 3985,
      "Ġws": 3986,
      "Ġgate": 3987,
      "Ġpool": 3988,
      "Ġ(`/": 3989,
      "Ġlibr": 3990,
      "failed": 3991,
      "CON": 3992,
      "cer": 3993,
      "ĠIm": 3994,
      "Ġinstance": 3995,
      "Ġrenders": 3996,
      "ibility": 3997,
      "Input": 3998,
      "îĤ°": 3999,
      "Finally": 4000,
      "Ġpack": 4001,
      "Ġprodu": 4002,
      "pected": 4003,
      "DR": 4004,
      "II": 4005,
      "dam": 4006,
      "je": 4007,
      "Ġ--------------------------------": 4008,
      "erm": 4009,
      "Ġliter": 4010,
      "Ġexpose": 4011,
      "uppet": 4012,
      "Ġcommitted": 4013,
      "Ġcounter": 4014,
      "renderer": 4015,
      "uppeteer": 4016,
      "None": 4017,
      "Ġpop": 4018,
      "Ġorange": 4019,
      "ensity": 4020,
      "weapon": 4021,
      "Ġasks": 4022,
      "Ġtypes": 4023,
      "requency": 4024,
      "Ġreplacing": 4025,
      "Local": 4026,
      "EventListener": 4027,
      "Ind": 4028,
      "Ġfair": 4029,
      "Ġfuture": 4030,
      "\\\":\\": 4031,
      "Ġlayer": 4032,
      "Ġrelated": 4033,
      "Add": 4034,
      "CT": 4035,
      "gin": 4036,
      "nav": 4037,
      "Ġbul": 4038,
      "uniform": 4039,
      "\\\"/": 4040,
      "Ġfeature": 4041,
      "Child": 4042,
      "bby": 4043,
      "ii": 4044,
      "long": 4045,
      "Ġform": 4046,
      "andbox": 4047,
      "iving": 4048,
      "Ġ??": 4049,
      "Ġbuffer": 4050,
      "Ġconversation": 4051,
      "79": 4052,
      "My": 4053,
      "Putting": 4054,
      "uck": 4055,
      "âĢľ": 4056,
      "icient": 4057,
      "Ġedited": 4058,
      "layer": 4059,
      "Ġ\\": 4060,
      "Ġshell": 4061,
      "anced": 4062,
      "Ġisinstance": 4063,
      "Ġediting": 4064,
      "Ġ[\\": 4065,
      "Ġroom": 4066,
      "Ġapplication": 4067,
      "Ġvalidation": 4068,
      "display": 4069,
      "fps": 4070,
      "oid": 4071,
      "Ġpin": 4072,
      "seq": 4073,
      "chron": 4074,
      "Ġhash": 4075,
      "Ġ120": 4076,
      "Ġdev": 4077,
      "provider": 4078,
      "ATE": 4079,
      "retry": 4080,
      "Ġmechan": 4081,
      "ysis": 4082,
      "Ġrestart": 4083,
      "Ġparent": 4084,
      "Ġlighting": 4085,
      "gate": 4086,
      "ination": 4087,
      "Ġones": 4088,
      "ialog": 4089,
      "scene": 4090,
      "Ġwriting": 4091,
      "Ġwrites": 4092,
      "ĠMakefile": 4093,
      "52": 4094,
      "atio": 4095,
      "Ġlower": 4096,
      "Ġcommun": 4097,
      "ists": 4098,
      "perhaps": 4099,
      "itionally": 4100,
      "Ġmaybe": 4101,
      "eep": 4102,
      "info": 4103,
      "Ġcomments": 4104,
      "Ġcos": 4105,
      "Ġshadow": 4106,
      "textContent": 4107,
      "Ġpieces": 4108,
      "Ġfeatures": 4109,
      "Ġembedd": 4110,
      "andidates": 4111,
      "querySelector": 4112,
      "Since": 4113,
      "Ġsense": 4114,
      "Ġmix": 4115,
      "amily": 4116,
      "second": 4117,
      "buy": 4118,
      "Ġbuy": 4119,
      "Ġsys": 4120,
      "\">": 4121,
      "69": 4122,
      "82": 4123,
      "kind": 4124,
      "maps": 4125,
      "Ġmid": 4126,
      "Ġmuch": 4127,
      "Ġ`${": 4128,
      "2026": 4129,
      "Ġshrink": 4130,
      "Ġfixing": 4131,
      "Ġflush": 4132,
      "Ġbasic": 4133,
      "Ġminutes": 4134,
      "dated": 4135,
      "Ġlobby": 4136,
      "Ġasync": 4137,
      "artbe": 4138,
      "Ġsuff": 4139,
      "Ġbound": 4140,
      "Ġart": 4141,
      "Ġdefine": 4142,
      "Ġcompletion": 4143,
      "Ġtrigger": 4144,
      "'],": 4145,
      "Ġaudit": 4146,
      "ensure": 4147,
      "ĠMA": 4148,
      "avy": 4149,
      "ignore": 4150,
      "Ġrecursive": 4151,
      "Ġfairly": 4152,
      "App": 4153,
      "BU": 4154,
      "fc": 4155,
      "ie": 4156,
      "ler": 4157,
      "\\\"\",": 4158,
      "Ġdri": 4159,
      "Ġusers": 4160,
      "Ġalong": 4161,
      "enshot": 4162,
      "Ġknown": 4163,
      "Ġsimulation": 4164,
      "offset": 4165,
      "Ġthinker": 4166,
      "Ġutilities": 4167,
      "(),": 4168,
      "guild": 4169,
      "},": 4170,
      "Ġwall": 4171,
      "alliance": 4172,
      "Ġclick": 4173,
      "thetic": 4174,
      "Ġplacement": 4175,
      "Ġmarker": 4176,
      "Ġrelative": 4177,
      "Ver": 4178,
      "](": 4179,
      "bject": 4180,
      "Ġ)": 4181,
      "Ġ@": 4182,
      "version": 4183,
      "tered": 4184,
      "Ġcorrespon": 4185,
      "Ġlimits": 4186,
      "Ġnpm": 4187,
      "bun": 4188,
      "flex": 4189,
      "nfor": 4190,
      "lean": 4191,
      "Ġthings": 4192,
      "Ġglobal": 4193,
      "Ġplanning": 4194,
      "Ġthinking": 4195,
      "Ġintegration": 4196,
      "solute": 4197,
      "Ġcareful": 4198,
      "Iss": 4199,
      "Ã©": 4200,
      "Ġpip": 4201,
      "Ġinstruct": 4202,
      "backward": 4203,
      "Ġskill": 4204,
      "likely": 4205,
      "Tools": 4206,
      "Ġquantization": 4207,
      "Monitor": 4208,
      "che": 4209,
      "menu": 4210,
      "Ġsay": 4211,
      "finished": 4212,
      "runner": 4213,
      "curl": 4214,
      "Ġlimited": 4215,
      "handle": 4216,
      "Ġaccurate": 4217,
      "Ġcompiled": 4218,
      "Fixed": 4219,
      "RI": 4220,
      "qdm": 4221,
      "Ġ{\\\"": 4222,
      "00000": 4223,
      "Ġmajor": 4224,
      "ips": 4225,
      "Ġgrass": 4226,
      "Ġloads": 4227,
      "Ġmanage": 4228,
      "slm": 4229,
      "Ġseems": 4230,
      "Code": 4231,
      "Ġultr": 4232,
      "Ġcandidate": 4233,
      "Ġprevent": 4234,
      "Ġreco": 4235,
      "rupt": 4236,
      "ocument": 4237,
      "Ġresolution": 4238,
      "ocker": 4239,
      "Im": 4240,
      "uning": 4241,
      "Ġstale": 4242,
      "Ġgain": 4243,
      "Ġbeh": 4244,
      "ĠPID": 4245,
      "Ġlooking": 4246,
      "Ġtheme": 4247,
      "addEventListener": 4248,
      "ternal": 4249,
      "Ġproceeding": 4250,
      "ĠYou": 4251,
      "PL": 4252,
      "stat": 4253,
      "Ġpot": 4254,
      "Ġthreshold": 4255,
      "Ġhits": 4256,
      "Ġdepth": 4257,
      "quest": 4258,
      "Ġworkers": 4259,
      "Ġabsolute": 4260,
      "Ġtimest": 4261,
      "Ġpause": 4262,
      "frames": 4263,
      "Ġevaluation": 4264,
      "No": 4265,
      "]);\\": 4266,
      "dtype": 4267,
      "ger": 4268,
      "ĠTiny": 4269,
      "Ġlock": 4270,
      "ircle": 4271,
      "ĠModelConfig": 4272,
      "Ġque": 4273,
      "Ġcreating": 4274,
      "Ġ600": 4275,
      "rows": 4276,
      "Ġtiming": 4277,
      "Ġ256": 4278,
      "Ġbran": 4279,
      "lindbot": 4280,
      "VER": 4281,
      "ear": 4282,
      "nexport": 4283,
      "Ġ`-": 4284,
      "Ġalways": 4285,
      "clude": 4286,
      "Ġcance": 4287,
      "fined": 4288,
      "visible": 4289,
      "Ġinternal": 4290,
      "INT": 4291,
      "]:\\": 4292,
      "free": 4293,
      "ened": 4294,
      "ctor": 4295,
      "Ġheading": 4296,
      "Ġlinting": 4297,
      "Ġindentation": 4298,
      "Ġreflects": 4299,
      "Ġmeaning": 4300,
      "Ġweights": 4301,
      "sur": 4302,
      "Ġesc": 4303,
      "Ġmerge": 4304,
      "decode": 4305,
      "Ġprotocol": 4306,
      "ĠCUDA": 4307,
      "ĠFalse": 4308,
      "Ġworkspace": 4309,
      "params": 4310,
      "Ġcrash": 4311,
      "Frame": 4312,
      "Index": 4313,
      "2000": 4314,
      "Ġsin": 4315,
      "Ġstored": 4316,
      "cknow": 4317,
      "console": 4318,
      "lib": 4319,
      "Ġinterface": 4320,
      "Ġmakes": 4321,
      "screen": 4322,
      "''": 4323,
      "lude": 4324,
      "Ġ`#": 4325,
      "Ġls": 4326,
      "ĠTask": 4327,
      "Ġexper": 4328,
      "udge": 4329,
      "checked": 4330,
      "Ġhelpers": 4331,
      "Ġschedule": 4332,
      "OST": 4333,
      "SI": 4334,
      "viv": 4335,
      "Ġsan": 4336,
      "Ġinference": 4337,
      "three": 4338,
      "thinking": 4339,
      "Ġspecify": 4340,
      "Ġpositions": 4341,
      "Ġprovider": 4342,
      "Ġdetection": 4343,
      "Logo": 4344,
      "On": 4345,
      "ound": 4346,
      "aches": 4347,
      "Ġpix": 4348,
      "Ġindicates": 4349,
      "Ġstyles": 4350,
      "fillRect": 4351,
      "Ġbroken": 4352,
      "ĠAt": 4353,
      "trace": 4354,
      "Ġparam": 4355,
      "Ġmanually": 4356,
      "Ġdescrib": 4357,
      "Ġanalysis": 4358,
      "ĠOnce": 4359,
      "Ġexamine": 4360,
      "Action": 4361,
      "aults": 4362,
      "Ġdecl": 4363,
      "Ġworker": 4364,
      "Ġuseful": 4365,
      "Ġindicate": 4366,
      "Update": 4367,
      "Ġstderr": 4368,
      "STM": 4369,
      "Ġoptions": 4370,
      "Ġslerp": 4371,
      "Ġslightly": 4372,
      "));": 4373,
      "56": 4374,
      "Ġeval": 4375,
      "Ġdet": 4376,
      "true": 4377,
      "source": 4378,
      "stringify": 4379,
      "Ġspace": 4380,
      "Ġsafely": 4381,
      "Ġoverwhel": 4382,
      "ULT": 4383,
      "client": 4384,
      "aptive": 4385,
      "avatar": 4386,
      "cos": 4387,
      "transform": 4388,
      "BUFF": 4389,
      "$(": 4390,
      "54": 4391,
      "72": 4392,
      "88": 4393,
      "PH": 4394,
      "root": 4395,
      "asing": 4396,
      "icy": 4397,
      "acle": 4398,
      "Ġexamples": 4399,
      "Ġlot": 4400,
      "Ġsear": 4401,
      "Ġchain": 4402,
      "Ġwrapper": 4403,
      "Ġdebugging": 4404,
      "net": 4405,
      "}/": 4406,
      "Ġacknow": 4407,
      "sted": 4408,
      "Ġreli": 4409,
      "Ġdir": 4410,
      "Ġdisc": 4411,
      "Ġlayers": 4412,
      "Ġtrying": 4413,
      "screenshot": 4414,
      "split": 4415,
      "trim": 4416,
      "Ġkept": 4417,
      "evalu": 4418,
      "arter": 4419,
      "imate": 4420,
      "Ġexer": 4421,
      "ĠPNG": 4422,
      "Ġsync": 4423,
      "Ġregist": 4424,
      "Ġfocus": 4425,
      "Ġroughly": 4426,
      "KEY": 4427,
      "Sync": 4428,
      "gre": 4429,
      "pr": 4430,
      "~/.": 4431,
      "Ġsite": 4432,
      "toFixed": 4433,
      "cons": 4434,
      "Ġquot": 4435,
      "Ġmouse": 4436,
      "Ġselected": 4437,
      "Ġexpand": 4438,
      "ĠChrome": 4439,
      "urbul": 4440,
      "ĠLoRA": 4441,
      "Ġpixel": 4442,
      ".</": 4443,
      "Ġsizes": 4444,
      "Ġincor": 4445,
      "Ġdate": 4446,
      "Ġplayers": 4447,
      "Ġtemplate": 4448,
      "Ġpossible": 4449,
      "DIR": 4450,
      "Ġsafest": 4451,
      "Ġdataclass": 4452,
      "oom": 4453,
      "since": 4454,
      "Ġevol": 4455,
      "Ġgather": 4456,
      "Ġexternal": 4457,
      "Ġhang": 4458,
      "Ġeditor": 4459,
      "Ġsignal": 4460,
      "uffer": 4461,
      "Ġreplaced": 4462,
      "Fetch": 4463,
      "fast": 4464,
      "rules": 4465,
      "sim": 4466,
      "uv": 4467,
      "uid": 4468,
      "att": 4469,
      "ora": 4470,
      "Ġfet": 4471,
      "Ġwrote": 4472,
      "verse": 4473,
      "Ġtraces": 4474,
      "Ġbackward": 4475,
      "127": 4476,
      "hair": 4477,
      "Ġextraction": 4478,
      "Ġaccum": 4479,
      "SH": 4480,
      "eo": 4481,
      "ered": 4482,
      "typ": 4483,
      "Ġ__": 4484,
      "Ġwalk": 4485,
      "rope": 4486,
      "oter": 4487,
      "Ġoverflow": 4488,
      "Ġopened": 4489,
      "Ġsimplest": 4490,
      "Ġgreen": 4491,
      "urbulence": 4492,
      "')\\": 4493,
      "BA": 4494,
      "Model": 4495,
      "Material": 4496,
      "UT": 4497,
      "Ġsort": 4498,
      "Ġ`'": 4499,
      "Ġinject": 4500,
      "Ġstore": 4501,
      "acode": 4502,
      "adapters": 4503,
      "otion": 4504,
      "ĠCTO": 4505,
      "ĠPOST": 4506,
      "find": 4507,
      "Ġboo": 4508,
      "Ġvarious": 4509,
      "Ġ90": 4510,
      "Ġimages": 4511,
      "Ġcompre": 4512,
      "Ġguide": 4513,
      "Ġefficient": 4514,
      "Blindbot": 4515,
      "left": 4516,
      "adic": 4517,
      "ĠĠĠĠĠĠĠĠĠĠĠĠĠĠĠĠĠĠĠĠĠĠĠ": 4518,
      "Ġvery": 4519,
      "getElement": 4520,
      "expected": 4521,
      "Ġdiscard": 4522,
      "Ġ---": 4523,
      "Ġcards": 4524,
      "realistic": 4525,
      "HTML": 4526,
      "ML": 4527,
      "stats": 4528,
      "Ġmask": 4529,
      "look": 4530,
      "Ġnotice": 4531,
      "Ġspecial": 4532,
      "Ġcommits": 4533,
      "Ġpatterns": 4534,
      "ĠQwen": 4535,
      ".**": 4536,
      "74": 4537,
      "nawait": 4538,
      "sel": 4539,
      "keyp": 4540,
      "romise": 4541,
      "Ġcalling": 4542,
      "Ġchecked": 4543,
      "Ġconfirms": 4544,
      "128": 4545,
      "Ġcompile": 4546,
      "lobby": 4547,
      "ithub": 4548,
      "Ġhardware": 4549,
      "iteration": 4550,
      "shared": 4551,
      "fer": 4552,
      "micro": 4553,
      "system": 4554,
      "orange": 4555,
      "lying": 4556,
      "Ġcompar": 4557,
      "Ġannot": 4558,
      "Ġconstrain": 4559,
      "Ġrequirements": 4560,
      "âĶĢâĶĢâĶĢâĶĢâĶĢâĶĢâĶĢâĶĢâĶĢâĶĢâĶĢâĶĢâĶĢâĶĢâĶĢâĶĢâĶĢâĶĢâĶĢâĶĢâĶĢâĶĢâĶĢâĶĢâĶĢâĶĢâĶĢâĶĢâĶĢâĶĢâĶĢâĶĢâĶĢâĶĢâĶĢâĶĢâĶĢâĶĢâĶĢâĶĢâĶĢâĶĢâĶĢâĶĢâĶĢâĶĢâĶĢâĶĢâĶĢâĶĢâĶĢâĶĢâĶĢâĶĢâĶĢâĶĢâĶĢâĶĢâĶĢâĶĢâĶĢâĶĢâĶĢâĶĢ": 4561,
      "Ġrecovery": 4562,
      "200": 4563,
      ":.": 4564,
      "heres": 4565,
      "hens": 4566,
      "Ġfri": 4567,
      "asca": 4568,
      "usal": 4569,
      "udges": 4570,
      "issive": 4571,
      "Ġkeeping": 4572,
      "Ġdefaults": 4573,
      "projects": 4574,
      "extra": 4575,
      "ascade": 4576,
      "Dir": 4577,
      "family": 4578,
      "Ġbun": 4579,
      "verification": 4580,
      "Ġjump": 4581,
      "ĠDocker": 4582,
      "Ġgets": 4583,
      "classList": 4584,
      "Ġtruncated": 4585,
      "Ġoverwhelming": 4586,
      "[\"": 4587,
      "umps": 4588,
      "Ġcreation": 4589,
      "Ġobjects": 4590,
      "Ġrepres": 4591,
      "Ġduplicate": 4592,
      "%,": 4593,
      "%;": 4594,
      "GL": 4595,
      "ele": 4596,
      "ged": 4597,
      "shots": 4598,
      "uched": 4599,
      "ased": 4600,
      "Ġexpos": 4601,
      "Ġ[];\\": 4602,
      "Ġcursor": 4603,
      "Ġkick": 4604,
      "ĠInst": 4605,
      "Ġdecay": 4606,
      "ogle": 4607,
      "install": 4608,
      "generate": 4609,
      "Ġattribute": 4610,
      "jection": 4611,
      "Ġbullet": 4612,
      "ik": 4613,
      "tri": 4614,
      "uz": 4615,
      "âīĪ": 4616,
      "return": 4617,
      "stdin": 4618,
      "Ġwake": 4619,
      "Ġstudent": 4620,
      "Ġexpression": 4621,
      "upport": 4622,
      "Ġworld": 4623,
      "aching": 4624,
      "Ġgenerous": 4625,
      "LOCK": 4626,
      "Ġinvoked": 4627,
      "alueError": 4628,
      "ById": 4629,
      "getElementById": 4630,
      "Set": 4631,
      "wright": 4632,
      "yond": 4633,
      "section": 4634,
      "(\\\"#": 4635,
      "hape": 4636,
      "Ġdependency": 4637,
      "âľ¦": 4638,
      "Each": 4639,
      "IME": 4640,
      "bash": 4641,
      "rap": 4642,
      "Ġcandidates": 4643,
      "Ġmom": 4644,
      "imm": 4645,
      "resume": 4646,
      "curacy": 4647,
      "Ġreplacement": 4648,
      "Ġbugs": 4649,
      "JSON": 4650,
      "benchmarks": 4651,
      "Ġcomprehens": 4652,
      "='": 4653,
      "Cont": 4654,
      "wers": 4655,
      "Ġbring": 4656,
      "vert": 4657,
      "Ġschema": 4658,
      "Ġwrong": 4659,
      "LEN": 4660,
      "ĠStudio": 4661,
      "Ġstrict": 4662,
      "Ġmentioned": 4663,
      "Ġlogging": 4664,
      "Ġdelete": 4665,
      "Ġobserved": 4666,
      "artbeat": 4667,
      "\"`.": 4668,
      "::": 4669,
      "[-": 4670,
      "iB": 4671,
      "tual": 4672,
      "uming": 4673,
      "('/": 4674,
      "ĠWhat": 4675,
      "Ġloaded": 4676,
      "ĠNothing": 4677,
      "appendChild": 4678,
      "Ġicons": 4679,
      "evaluate": 4680,
      ";`": 4681,
      "ernel": 4682,
      "ector": 4683,
      "Ġcontrol": 4684,
      "Ġplug": 4685,
      "ĠRalph": 4686,
      "ĠEarlier": 4687,
      "periments": 4688,
      "Ġbots": 4689,
      "Ġcomprehensive": 4690,
      "Ġamb": 4691,
      "Ġstm": 4692,
      "Ġbeyond": 4693,
      "Ġscaff": 4694,
      "logs": 4695,
      "Ġpassing": 4696,
      "paperclipai": 4697,
      "Ġregion": 4698,
      "Ġembedding": 4699,
      "keypatch": 4700,
      "Ġscaffold": 4701,
      "53": 4702,
      "Open": 4703,
      "dot": 4704,
      "diffusion": 4705,
      "entries": 4706,
      "ushed": 4707,
      "Ġhal": 4708,
      "intro": 4709,
      "Ġ'\\\\": 4710,
      "placement": 4711,
      "Ġinstant": 4712,
      "Ġblack": 4713,
      "Ġtargets": 4714,
      "Ġsynt": 4715,
      "Ġsynthetic": 4716,
      "Ġroughness": 4717,
      "close": 4718,
      "*.": 4719,
      "mask": 4720,
      "Ġcaps": 4721,
      "Ġtoward": 4722,
      "deg": 4723,
      "ured": 4724,
      "ĠSet": 4725,
      "ensus": 4726,
      "tring": 4727,
      "assets": 4728,
      "Ġdoing": 4729,
      "Ġflash": 4730,
      "Ġallowing": 4731,
      "Ġevaluate": 4732,
      "pipe": 4733,
      "Ġinserted": 4734,
      "reasoning": 4735,
      "Buffer": 4736,
      "Item": 4737,
      "budget": 4738,
      "spect": 4739,
      "Ġnn": 4740,
      "Ġnar": 4741,
      "\\\"}": 4742,
      "Ġcompl": 4743,
      "ĠFPS": 4744,
      "Ġworked": 4745,
      "Ġ[]\\": 4746,
      "probe": 4747,
      "Ġaccess": 4748,
      "Stories": 4749,
      "Ġcomplex": 4750,
      ")/": 4751,
      "63": 4752,
      "])\\": 4753,
      "ðŁ": 4754,
      "Ġaudio": 4755,
      "Ġdue": 4756,
      "ifically": 4757,
      "values": 4758,
      "Ġpatched": 4759,
      "Ġeffective": 4760,
      "Ġmerging": 4761,
      "Ġtakes": 4762,
      "bf": 4763,
      "font": 4764,
      "github": 4765,
      "Ġest": 4766,
      "Ġrank": 4767,
      "opacity": 4768,
      "ĠPromise": 4769,
      "ĠMtok": 4770,
      "ĠDis": 4771,
      "Ġpresence": 4772,
      "Ġlosses": 4773,
      "Ġredirect": 4774,
      "Ġrepeated": 4775,
      "`);\\": 4776,
      "dt": 4777,
      "has": 4778,
      "Ġsplit": 4779,
      "ident": 4780,
      "Ġwhite": 4781,
      "perature": 4782,
      "Ġoverlay": 4783,
      "playtest": 4784,
      "Ġsaid": 4785,
      "Ġconstructed": 4786,
      "Ġflags": 4787,
      "600": 4788,
      "Bu": 4789,
      "Del": 4790,
      "NE": 4791,
      "TY": 4792,
      "my": 4793,
      "inue": 4794,
      "Ġthread": 4795,
      "Ġdark": 4796,
      "contain": 4797,
      "ĠRec": 4798,
      "spawn": 4799,
      "Array": 4800,
      "sky": 4801,
      "Ġdimensions": 4802,
      "Ġlibrary": 4803,
      "Ġ----------------------------------------------------------------": 4804,
      "He": 4805,
      "Vector": 4806,
      "Xiv": 4807,
      "rand": 4808,
      "Ġtone": 4809,
      "Ġclock": 4810,
      "stop": 4811,
      "ĠType": 4812,
      "vest": 4813,
      "soft": 4814,
      "Ġedge": 4815,
      "Ġ['": 4816,
      "Ġlisting": 4817,
      "Ġbreaks": 4818,
      "gradient": 4819,
      "Ġpersist": 4820,
      "Ġbranch": 4821,
      "MIT": 4822,
      "eries": 4823,
      "rough": 4824,
      "Ġ(âĢľ": 4825,
      "hoto": 4826,
      "Ġisol": 4827,
      "uler": 4828,
      "umably": 4829,
      "Ġpoll": 4830,
      "Ġkernel": 4831,
      "Stack": 4832,
      "Ġanimations": 4833,
      "ĠĠĠĠĠĠĠĠĠĠĠĠĠĠĠĠĠĠĠĠĠĠĠĠĠĠĠĠĠĠĠĠĠĠĠĠĠĠĠĠĠĠĠĠĠĠĠĠĠĠĠĠĠĠĠĠĠĠĠĠĠĠĠĠĠĠĠĠĠĠĠĠĠĠĠĠĠĠĠĠĠĠĠĠĠĠĠĠĠĠĠĠĠĠĠĠĠĠĠĠ": 4834,
      "request": 4835,
      "Ġclosing": 4836,
      "Ġremove": 4837,
      "merging": 4838,
      "(/": 4839,
      "âķ": 4840,
      "onts": 4841,
      "enabled": 4842,
      "Ġface": 4843,
      "delta": 4844,
      "Ġ'^": 4845,
      "Ġleave": 4846,
      "Ġoutputs": 4847,
      "echo": 4848,
      "ĠĠĠĠĠĠĠĠĠĠĠĠĠĠĠĠĠĠĠĠĠĠĠĠĠĠĠĠĠĠĠĠĠĠĠĠĠĠĠĠĠĠĠĠĠĠĠĠĠĠĠĠĠĠĠĠĠĠĠĠĠĠĠĠĠĠĠĠĠĠĠĠĠĠĠĠĠĠĠĠ": 4849,
      "aunch": 4850,
      "Ġfollows": 4851,
      "require": 4852,
      "CHE": 4853,
      "Ġdiagnose": 4854,
      "Ġsanity": 4855,
      "caveat": 4856,
      "faint": 4857,
      "kv": 4858,
      "uge": 4859,
      "Ġparams": 4860,
      "Ġsubprocess": 4861,
      "waitFor": 4862,
      "Ġproperly": 4863,
      "frame": 4864,
      "normal": 4865,
      "KEN": 4866,
      "URE": 4867,
      "bust": 4868,
      "attempt": 4869,
      "Ġche": 4870,
      "**,": 4871,
      "reset": 4872,
      "())": 4873,
      "Ġparser": 4874,
      "ĠVer": 4875,
      "Ġpreserve": 4876,
      "(.": 4877,
      "RT": 4878,
      "TS": 4879,
      "Write": 4880,
      "gist": 4881,
      "});\\": 4882,
      "ulated": 4883,
      "quigg": 4884,
      "Ġ});": 4885,
      "ĠCheck": 4886,
      "Ġresume": 4887,
      "lip": 4888,
      "Ġyaw": 4889,
      "pair": 4890,
      "loops": 4891,
      "Ġdownload": 4892,
      "ĠTrain": 4893,
      "Execut": 4894,
      "Shadow": 4895,
      "ggle": 4896,
      "Ġphrase": 4897,
      "Ġconfidence": 4898,
      "Direction": 4899,
      "aft": 4900,
      "Ġsamples": 4901,
      "Ġexperiments": 4902,
      "Ġhar": 4903,
      "Ġcallback": 4904,
      "ĠsetTimeout": 4905,
      "linear": 4906,
      "Ġmoved": 4907,
      "valid": 4908,
      "Ġprovided": 4909,
      "Ġwarmup": 4910,
      "TERN": 4911,
      "PATTERN": 4912,
      "Ġnetwork": 4913,
      "Ġmoment": 4914,
      "{\"": 4915,
      "Ġour": 4916,
      "Ġorche": 4917,
      "ĠSD": 4918,
      "plement": 4919,
      "Ġclar": 4920,
      "Ġhandoff": 4921,
      "Ġcollect": 4922,
      "agnostics": 4923,
      "ĠĠĠĠĠĠĠĠĠĠĠĠĠĠĠĠĠĠĠĠĠĠĠĠĠĠĠĠĠĠĠĠĠĠĠĠĠĠĠĠĠĠĠĠĠĠĠĠĠĠĠĠĠĠĠĠĠĠĠĠĠĠĠĠĠĠĠĠĠĠĠĠĠĠĠĠĠĠĠĠĠĠĠĠĠĠĠĠĠĠĠĠĠĠĠĠĠĠĠĠĠĠĠĠĠĠĠĠĠĠĠĠĠĠ": 4924,
      "Ġcodes": 4925,
      "Ġdeterministic": 4926,
      "Ġorchestr": 4927,
      ".\"}": 4928,
      "Cascade": 4929,
      "Width": 4930,
      "merge": 4931,
      "}>\\": 4932,
      "ĊĊ": 4933,
      "rotation": 4934,
      "Ġdro": 4935,
      "ensive": 4936,
      "Ġspot": 4937,
      "Ġthought": 4938,
      "Ġtargeted": 4939,
      "ighter": 4940,
      "Projects": 4941,
      "Ġrealistic": 4942,
      "ĠRunning": 4943,
      "Anim": 4944,
      "Ġdynamic": 4945,
      "Ġmechanis": 4946,
      "CascadeProjects": 4947,
      "ties": 4948,
      "Ġpress": 4949,
      "Ġinline": 4950,
      "Ġdump": 4951,
      "Ġsem": 4952,
      "ĠAr": 4953,
      "Ġ'/": 4954,
      "ĠCEO": 4955,
      "Ġheavy": 4956,
      "calc": 4957,
      "words": 4958,
      "Tex": 4959,
      "ee": 4960,
      "record": 4961,
      "Ġ`(": 4962,
      "Ġexceed": 4963,
      "Ġpost": 4964,
      "ĠHugging": 4965,
      "Start": 4966,
      "Ġcompare": 4967,
      "Ġfeel": 4968,
      "Ġepochs": 4969,
      "FAULT": 4970,
      "oneline": 4971,
      "Ġdialog": 4972,
      "Ġconvent": 4973,
      "rix": 4974,
      "aybe": 4975,
      "quality": 4976,
      "connect": 4977,
      "rents": 4978,
      "Ġ400": 4979,
      "Ġknowledge": 4980,
      "planning": 4981,
      "Ġchannels": 4982,
      "Ġoccurrences": 4983,
      "Count": 4984,
      "sign": 4985,
      "Ġmath": 4986,
      "Ġstub": 4987,
      "Ġstuck": 4988,
      "accuracy": 4989,
      "ager": 4990,
      "ivity": 4991,
      "Ġvers": 4992,
      "Ġverifier": 4993,
      "Ġrequires": 4994,
      "bottom": 4995,
      "?.": 4996,
      "pawn": 4997,
      "yaw": 4998,
      "Ġsandbox": 4999,
      "atform": 5000,
      "Ġpatch": 5001,
      "Ġregress": 5002,
      "andard": 5003,
      "ĠRight": 5004,
      "spacing": 5005,
      "Ġstray": 5006,
      "diagnostics": 5007,
      "Ġcolumn": 5008,
      "interactive": 5009,
      "Ġdevelop": 5010,
      "adata": 5011,
      "ampl": 5012,
      "amps": 5013,
      "resolve": 5014,
      "Ġjit": 5015,
      "Ġhighlight": 5016,
      "TOKEN": 5017,
      "Ġdebug": 5018,
      "8421376": 5019,
      "Lo": 5020,
      "afe": 5021,
      "Ġtps": 5022,
      "heet": 5023,
      "Ġpanel": 5024,
      "isk": 5025,
      "Ġdig": 5026,
      "Ġannounce": 5027,
      "pytest": 5028,
      "Ġreso": 5029,
      "âĢĿ)": 5030,
      "ĠDo": 5031,
      "Ġ8421376": 5032,
      "Ġ>>": 5033,
      "shrink": 5034,
      "TASKS": 5035,
      "Ġsearches": 5036,
      "border": 5037,
      "link": 5038,
      "Ġnat": 5039,
      "Ġinvest": 5040,
      "Ġsticky": 5041,
      "Ġneon": 5042,
      "olo": 5043,
      "Ġgone": 5044,
      "ĠPlay": 5045,
      "Ġprefix": 5046,
      "Ġexpectations": 5047,
      "ĠĠĠĠĠĠĠĠĠĠĠĠĠĠĠĠĠĠĠĠĠĠĠĠĠĠĠĠĠĠĠĠĠĠĠĠĠĠĠĠĠĠĠĠĠĠĠĠĠĠĠĠĠĠĠĠĠĠĠĠĠĠĠĠĠĠĠĠĠĠĠĠĠĠĠĠĠĠĠĠĠĠĠĠĠĠĠĠĠĠĠĠĠĠĠĠĠĠĠĠĠĠĠĠĠĠĠĠĠ": 5048,
      "Ġremote": 5049,
      "âĶĢâĶĢâĶĢâĶĢâĶĢâĶĢâĶĢâĶĢâĶĢâĶĢâĶĢâĶĢâĶĢâĶĢâĶĢâĶĢâĶĢâĶĢâĶĢâĶĢâĶĢâĶĢâĶĢâĶĢâĶĢâĶĢâĶĢâĶĢâĶĢâĶĢâĶĢâĶĢâĶĢâĶĢâĶĢâĶĢâĶĢâĶĢâĶĢâĶĢ": 5050,
      "---\\": 5051,
      "ĠCoT": 5052,
      "Vi": 5053,
      "cs": 5054,
      "maybe": 5055,
      "wind": 5056,
      "Ġta": 5057,
      "remove": 5058,
      "ughout": 5059,
      "Ġcolors": 5060,
      "metry": 5061,
      "innerHTML": 5062,
      "51": 5063,
      "Block": 5064,
      "Row": 5065,
      "ern": 5066,
      "Ġfit": 5067,
      "edu": 5068,
      "Ġpol": 5069,
      "Ġ`~/.": 5070,
      "Ġconnect": 5071,
      "vec": 5072,
      "tournament": 5073,
      "assistant": 5074,
      "Ġunless": 5075,
      "ocation": 5076,
      "tml": 5077,
      "Ġsprite": 5078,
      "Ġinterpre": 5079,
      "important": 5080,
      "ypot": 5081,
      "ynchron": 5082,
      "auto": 5083,
      "ĠAnthropic": 5084,
      "thought": 5085,
      "GG": 5086,
      "bs": 5087,
      "gative": 5088,
      "Ġsalvage": 5089,
      "Ġcateg": 5090,
      "Ġtouch": 5091,
      "ĠWebSearch": 5092,
      "ribution": 5093,
      "Ġidea": 5094,
      "Ġsummarize": 5095,
      "Ġdiscus": 5096,
      "hy": 5097,
      "page": 5098,
      "}\\\")\\": 5099,
      "Ġaren": 5100,
      "Ġsit": 5101,
      "alth": 5102,
      "oding": 5103,
      "minim": 5104,
      "Ġprelude": 5105,
      "ĠUp": 5106,
      "Ġrout": 5107,
      "Ġshown": 5108,
      "eader": 5109,
      "Ġreferenced": 5110,
      "heads": 5111,
      "Ġmethods": 5112,
      "flash": 5113,
      "^^^^": 5114,
      ":'": 5115,
      "BO": 5116,
      "Body": 5117,
      "CES": 5118,
      "];": 5119,
      "cross": 5120,
      "wiki": 5121,
      "ĠTest": 5122,
      "Ġ150": 5123,
      "Ġcomb": 5124,
      "\\\\\\\"": 5125,
      "mouse": 5126,
      "Ġstartup": 5127,
      "Ġvision": 5128,
      "Ġemissive": 5129,
      "Ġscope": 5130,
      "center": 5131,
      "Ġcatalog": 5132,
      "weapons": 5133,
      "Ġinvestig": 5134,
      "OS": 5135,
      "Wor": 5136,
      "bytes": 5137,
      "})": 5138,
      "Ġplaced": 5139,
      "oney": 5140,
      "Ġfeed": 5141,
      "Ġopening": 5142,
      "Ġdistinct": 5143,
      "byte": 5144,
      "Ġrecorded": 5145,
      ".\"": 5146,
      "plo": 5147,
      "sw": 5148,
      "support": 5149,
      "Ġgam": 5150,
      "loom": 5151,
      "okÃ©": 5152,
      "mount": 5153,
      "ONE": 5154,
      "Ġinspe": 5155,
      "LEV": 5156,
      "coded": 5157,
      "Ġdescribe": 5158,
      "ĠKeep": 5159,
      "Ġindeed": 5160,
      "Of": 5161,
      "Test": 5162,
      "call": 5163,
      "false": 5164,
      "{\\\"": 5165,
      "}:": 5166,
      "ĠîĤ°": 5167,
      "Ġbund": 5168,
      "ionally": 5169,
      "ilities": 5170,
      "Ġhost": 5171,
      "Ġspan": 5172,
      "LIMIT": 5173,
      "Ġrequested": 5174,
      "Ġfrag": 5175,
      "Ġtransparent": 5176,
      "Ġtokenizer": 5177,
      "========================": 5178,
      "Ġdisplayed": 5179,
      "Ġuv": 5180,
      "ĠAdditionally": 5181,
      "TEMP": 5182,
      "help": 5183,
      "Ġtweaks": 5184,
      "Ġtensors": 5185,
      "/$": 5186,
      "ause": 5187,
      "Ġsom": 5188,
      "erver": 5189,
      "Ġrecom": 5190,
      "Ġincomplete": 5191,
      "Ġgen": 5192,
      "Ġ-=": 5193,
      "tex": 5194,
      "ĠCode": 5195,
      "ĠLooking": 5196,
      "REEBUFF": 5197,
      "Ġ~/.": 5198,
      "Ġcommunic": 5199,
      "Ġharness": 5200,
      ".\",": 5201,
      "MS": 5202,
      "`/`": 5203,
      "da": 5204,
      "hard": 5205,
      "ral": 5206,
      "ww": 5207,
      "Ġcut": 5208,
      "Ġ1000": 5209,
      "Ġalive": 5210,
      "coming": 5211,
      "Ġsoft": 5212,
      "Ġ33": 5213,
      "Ġperf": 5214,
      "Ġstatement": 5215,
      "force": 5216,
      "Ġresolved": 5217,
      "sessions": 5218,
      "\\\"\\\"\\\"\\": 5219,
      "Ġdiagnostics": 5220,
      "Ġplugin": 5221,
      "New": 5222,
      "hf": 5223,
      "Ġtw": 5224,
      "anies": 5225,
      "utf": 5226,
      "Ġeasy": 5227,
      "async": 5228,
      "Ġstates": 5229,
      "ads": 5230,
      "Ġgiving": 5231,
      "Ġfire": 5232,
      "Ġdelay": 5233,
      "ĠThree": 5234,
      "Ġrobust": 5235,
      "Standard": 5236,
      "Ġapi": 5237,
      "forEach": 5238,
      "Ġthroughout": 5239,
      "Ġmetadata": 5240,
      "Ġrelease": 5241,
      "Ġ$(\\\"#": 5242,
      "Ġslice": 5243,
      "Ġsupports": 5244,
      "checkpoints": 5245,
      "Tokens": 5246,
      "tag": 5247,
      "ued": 5248,
      "Ġcho": 5249,
      "Ġlack": 5250,
      "Ġnum": 5251,
      "Ġinner": 5252,
      "comes": 5253,
      "ĠBuild": 5254,
      "Ġseeds": 5255,
      "Ġstrip": 5256,
      "uggingface": 5257,
      "Ġinstructions": 5258,
      "mission": 5259,
      "Ġliteral": 5260,
      "Ġconstraints": 5261,
      "Ġinspection": 5262,
      "StandardMaterial": 5263,
      "-.": 5264,
      "[^": 5265,
      "header": 5266,
      "Ġfp": 5267,
      "ars": 5268,
      "Ġ`[": 5269,
      "Ġthrow": 5270,
      "Ġ19": 5271,
      "aved": 5272,
      "ĠDec": 5273,
      "issue": 5274,
      "Ġadjustments": 5275,
      "Ġcompletes": 5276,
      "Session": 5277,
      "aver": 5278,
      "panel": 5279,
      "rag": 5280,
      "STE": 5281,
      "Ġnotes": 5282,
      "icks": 5283,
      "Ġgreps": 5284,
      "Ġskip": 5285,
      "meta": 5286,
      "'));\\": 5287,
      "Bash": 5288,
      "VI": 5289,
      "Wait": 5290,
      "\\|": 5291,
      "Ŀ¯": 5292,
      "Ġdirection": 5293,
      "amage": 5294,
      "ands": 5295,
      "Ġdeli": 5296,
      "Ġcallers": 5297,
      "Ġsound": 5298,
      "ĠFile": 5299,
      "Ġtrained": 5300,
      "Ġsending": 5301,
      "Ġstopp": 5302,
      "MeshStandardMaterial": 5303,
      "El": 5304,
      "Out": 5305,
      "Rule": 5306,
      "gain": 5307,
      "Ġtile": 5308,
      "Ġsampl": 5309,
      "Ġbanner": 5310,
      "ĠThese": 5311,
      "ĠPlease": 5312,
      "Ġleading": 5313,
      "examples": 5314,
      "ĠâĶľ": 5315,
      "Ġthough": 5316,
      "Ġgraph": 5317,
      "allel": 5318,
      "Ġtracking": 5319,
      "Ġbattle": 5320,
      "Ġbroadcast": 5321,
      "ModelConfig": 5322,
      "vm": 5323,
      "ym": 5324,
      "ĊĠĠĠĠĠĠĠĠĠ": 5325,
      "Ġcar": 5326,
      "Ġcell": 5327,
      "ison": 5328,
      "Ġadapters": 5329,
      "ewhere": 5330,
      "oped": 5331,
      "Ġ429": 5332,
      "Ġrefresh": 5333,
      "iddle": 5334,
      "Ġbenchmarks": 5335,
      "Ġkilled": 5336,
      "column": 5337,
      "oderStack": 5338,
      "Ġsilently": 5339,
      "Ġqueue": 5340,
      "Scale": 5341,
      "cis": 5342,
      "dge": 5343,
      "field": 5344,
      "}>": 5345,
      "Ġach": 5346,
      "attr": 5347,
      "detail": 5348,
      "chunk": 5349,
      "aged": 5350,
      "Ġdelta": 5351,
      "ird": 5352,
      "Ġwhate": 5353,
      "Ġrecap": 5354,
      "Ġabort": 5355,
      "buffer": 5356,
      "Ġmetric": 5357,
      "Ġtimed": 5358,
      "Ġsentine": 5359,
      "Ġpairs": 5360,
      "liner": 5361,
      "cut": 5362,
      "Ġmusic": 5363,
      "Ġlr": 5364,
      "hover": 5365,
      "vergen": 5366,
      "Ġ\\\"\\\";\\": 5367,
      "âĢĿ).": 5368,
      "Ġpercent": 5369,
      "Ġ80": 5370,
      "ously": 5371,
      "Idx": 5372,
      "Ġmarked": 5373,
      "serverId": 5374,
      "upleType": 5375,
      "perimentConfig": 5376,
      "selected": 5377,
      "---|": 5378,
      "Ġfocused": 5379,
      "Issues": 5380,
      "mypy": 5381,
      "\";": 5382,
      "Att": 5383,
      "How": 5384,
      "dc": 5385,
      "fs": 5386,
      "attn": 5387,
      "Ġbig": 5388,
      "arn": 5389,
      "Ġrepro": 5390,
      "Ġconne": 5391,
      "Ġvocab": 5392,
      "ĠPrint": 5393,
      "awns": 5394,
      "ĠLLM": 5395,
      "Ġinterpol": 5396,
      "Ġ128": 5397,
      "Ġstrateg": 5398,
      "Ġfraction": 5399,
      "Ġcompany": 5400,
      "Ġreply": 5401,
      "high": 5402,
      "Ġcast": 5403,
      "deep": 5404,
      "Ġreject": 5405,
      "Ġstat": 5406,
      "Ġang": 5407,
      "Ġcannot": 5408,
      "ĠPokÃ©": 5409,
      "())\\": 5410,
      "moj": 5411,
      "mature": 5412,
      "Ġmerges": 5413,
      "Ġsummarizing": 5414,
      "Ġexercis": 5415,
      "Ġboolean": 5416,
      "ĠTypeScript": 5417,
      "Ġsomewhere": 5418,
      "$'": 5419,
      "AN": 5420,
      "mes": 5421,
      "nlet": 5422,
      "Ġ----": 5423,
      "req": 5424,
      "Ġcam": 5425,
      "Ġnative": 5426,
      "Ġ=================================": 5427,
      "ifies": 5428,
      "ĠNOT": 5429,
      "Ġgenerator": 5430,
      "Ġtranslate": 5431,
      "COMP": 5432,
      "Ġlatency": 5433,
      "ĠAdding": 5434,
      "Ġpulling": 5435,
      "Ġtags": 5436,
      "uzz": 5437,
      "Ġdevelopment": 5438,
      "\"]": 5439,
      "brid": 5440,
      "smo": 5441,
      "Ġling": 5442,
      "Ġsty": 5443,
      "Ġserve": 5444,
      "book": 5445,
      "Ġflat": 5446,
      "instruct": 5447,
      "metric": 5448,
      "Ġdrawing": 5449,
      "counter": 5450,
      "Ġsufficient": 5451,
      "Ġwhatever": 5452,
      "EC": 5453,
      "direct": 5454,
      "nsrc": 5455,
      "rest": 5456,
      "role": 5457,
      "uto": 5458,
      "Ġemoj": 5459,
      "child": 5460,
      "Ġ{\"": 5461,
      "aby": 5462,
      "ĠRep": 5463,
      "ĠEach": 5464,
      "ĠFrom": 5465,
      "ĠOllama": 5466,
      "Ġsubtle": 5467,
      "Ġautotune": 5468,
      "Texture": 5469,
      "SECON": 5470,
      "adapterConfig": 5471,
      "Ġproviding": 5472,
      "Ġsatisfies": 5473,
      "Ġtweaked": 5474,
      "Partic": 5475,
      "Ġdescribing": 5476,
      "'),": 5477,
      ":âĢĿ": 5478,
      "iers": 5479,
      "rgba": 5480,
      "xity": 5481,
      "Ġ(âīĪ": 5482,
      "Ġstuff": 5483,
      "cker": 5484,
      "ĠBl": 5485,
      "ĠFace": 5486,
      "graph": 5487,
      "Ġâ¢": 5488,
      "Ġsuper": 5489,
      "companies": 5490,
      "fraction": 5491,
      "Ġidentified": 5492,
      "Ġconditional": 5493,
      "optim": 5494,
      "Ġtimestamp": 5495,
      "vival": 5496,
      "SECONDS": 5497,
      "Create": 5498,
      "Norm": 5499,
      "nif": 5500,
      "engine": 5501,
      "Ġsegment": 5502,
      "ĠMore": 5503,
      "Ġappended": 5504,
      "eft": 5505,
      "indexer": 5506,
      "Ġdecode": 5507,
      "Ġsignals": 5508,
      "Ġintegrate": 5509,
      "Ġartif": 5510,
      "Ġfetched": 5511,
      "Ġjitter": 5512,
      "uzzle": 5513,
      "]+": 5514,
      "ian": 5515,
      "pres": 5516,
      "ĊĠĠĠĠĠĠ": 5517,
      "inate": 5518,
      "Ġpast": 5519,
      "aries": 5520,
      "resize": 5521,
      "Ġparsed": 5522,
      "Ġtextures": 5523,
      "ĠOpen": 5524,
      "Ġsimpl": 5525,
      "caten": 5526,
      "Ġmovement": 5527,
      "Ġchildren": 5528,
      ")|": 5529,
      "ND": 5530,
      "PER": 5531,
      "tim": 5532,
      "Ġreduced": 5533,
      "Ġprogram": 5534,
      "reshape": 5535,
      "ĠAd": 5536,
      "itext": 5537,
      "assert": 5538,
      "Ġhered": 5539,
      "Ġ3000": 5540,
      "experiment": 5541,
      "Ġroutes": 5542,
      "umber": 5543,
      "Info": 5544,
      "Ġperforms": 5545,
      "20260610": 5546,
      "Ġproperties": 5547,
      "Ġincrement": 5548,
      "ikitext": 5549,
      "Ġ------------------------------------------------------------------------": 5550,
      "Ġheredoc": 5551,
      "Adam": 5552,
      "cap": 5553,
      "history": 5554,
      "mk": 5555,
      "npx": 5556,
      "os": 5557,
      "qwen": 5558,
      "ertain": 5559,
      "illion": 5560,
      "irtual": 5561,
      "umes": 5562,
      "uman": 5563,
      "answer": 5564,
      "Ġimportant": 5565,
      "Ġpicture": 5566,
      "parameter": 5567,
      "Inst": 5568,
      "Ġanswers": 5569,
      "Ġmonkeypatch": 5570,
      "Ġcras": 5571,
      "Ġfineweb": 5572,
      "channels": 5573,
      "batim": 5574,
      "ĠMAX": 5575,
      "eaderboard": 5576,
      "vergence": 5577,
      "Document": 5578,
      "WN": 5579,
      "calls": 5580,
      "Ġbrid": 5581,
      "Ġmach": 5582,
      "Ġstable": 5583,
      "imary": 5584,
      "apes": 5585,
      "Ġvirtual": 5586,
      "compute": 5587,
      "ople": 5588,
      "ĠUpdate": 5589,
      "ences": 5590,
      "Ġprocessing": 5591,
      "ING": 5592,
      "keyframes": 5593,
      "Ġwordmark": 5594,
      "scripts": 5595,
      "hit": 5596,
      "ients": 5597,
      "repo": 5598,
      "stderr": 5599,
      "align": 5600,
      "Ġmesh": 5601,
      "Ġey": 5602,
      "\\\"],": 5603,
      "Ġable": 5604,
      "Ġrequests": 5605,
      "\\\">${": 5606,
      "auth": 5607,
      "Ġlaunching": 5608,
      "Ġultracode": 5609,
      "Ġhalf": 5610,
      "Ġcombine": 5611,
      "GH": 5612,
      "camera": 5613,
      "iod": 5614,
      "nconsole": 5615,
      "uc": 5616,
      "Ġbash": 5617,
      "ropy": 5618,
      "Ġconcaten": 5619,
      "Ġrais": 5620,
      "Ġ\".": 5621,
      "ineweb": 5622,
      "Ġsees": 5623,
      "Ġscen": 5624,
      "Ġ\\\"\\\"\\\"": 5625,
      "Ġadaptive": 5626,
      "ĠBefore": 5627,
      "Ġplatform": 5628,
      "Ġunchecked": 5629,
      "Ġimported": 5630,
      "Ġinteraction": 5631,
      "Ġlooked": 5632,
      "Ġasking": 5633,
      "chedule": 5634,
      "Ġnavigation": 5635,
      "Ġsubstit": 5636,
      "Ġcancel": 5637,
      "pipeline": 5638,
      "GAME": 5639,
      "opy": 5640,
      "lemetry": 5641,
      "Ġmcp": 5642,
      "acter": 5643,
      "ĠCont": 5644,
      "Ġoutline": 5645,
      "Ġ500": 5646,
      "Ġclone": 5647,
      "ocast": 5648,
      "Ġenumer": 5649,
      "Ġfluid": 5650,
      "Ġexecutable": 5651,
      "Ġrequirement": 5652,
      "Ġphysics": 5653,
      "Ġlinks": 5654,
      "quiggle": 5655,
      "If": 5656,
      "group": 5657,
      "ores": 5658,
      "pu": 5659,
      "tqdm": 5660,
      "Ġhp": 5661,
      "Ġarea": 5662,
      "Ġprepa": 5663,
      "posed": 5664,
      "Ġstatements": 5665,
      "Ġcommitting": 5666,
      "argument": 5667,
      "Ġrefact": 5668,
      "'))": 5669,
      "Ġiterate": 5670,
      "MAX": 5671,
      "quantization": 5672,
      "View": 5673,
      "!!": 5674,
      "Research": 5675,
      "TEXT": 5676,
      "Un": 5677,
      "fetch": 5678,
      "pdf": 5679,
      "umns": 5680,
      "Ġ35": 5681,
      "Ġchecklist": 5682,
      "Ġheadings": 5683,
      "AIL": 5684,
      "ĠAdded": 5685,
      "Ġembeddings": 5686,
      "Height": 5687,
      "Object": 5688,
      "dbg": 5689,
      "nb": 5690,
      "tensor": 5691,
      "yolo": 5692,
      "Ġaver": 5693,
      "Ġamount": 5694,
      "ĠĠĠĠĠĠĠĠĠĠ": 5695,
      "ances": 5696,
      "xture": 5697,
      "romium": 5698,
      "plexity": 5699,
      "Ġreturning": 5700,
      "apply": 5701,
      "Ġtherefore": 5702,
      "ĠTool": 5703,
      "Ġcomputed": 5704,
      "Ġaddresses": 5705,
      "Ġcontinuation": 5706,
      "accum": 5707,
      "Ġmechanism": 5708,
      "ĠDecoderStack": 5709,
      "135": 5710,
      "DO": 5711,
      "FP": 5712,
      "Head": 5713,
      "Ġmass": 5714,
      "seen": 5715,
      "Ġhat": 5716,
      "Ġhuge": 5717,
      "Ġproced": 5718,
      "tect": 5719,
      "ĠRule": 5720,
      "Ġrot": 5721,
      "Ġimplemented": 5722,
      "Ġvariadic": 5723,
      "pressure": 5724,
      "Ġfindings": 5725,
      "Runner": 5726,
      "Ġlingering": 5727,
      ".\\\",\\": 5728,
      "RATE": 5729,
      "fire": 5730,
      "hase": 5731,
      "mcp": 5732,
      "our": 5733,
      "Ġspl": 5734,
      "Ġredu": 5735,
      "uted": 5736,
      "\\\"{": 5737,
      "ety": 5738,
      "vey": 5739,
      "seek": 5740,
      "Ġproving": 5741,
      "Ġvol": 5742,
      "Ġseg": 5743,
      "ĠPPL": 5744,
      "Ġparses": 5745,
      "begin": 5746,
      "({\\": 5747,
      "Ġinvocation": 5748,
      "ĠWebFetch": 5749,
      "template": 5750,
      "Ġnaming": 5751,
      "Ġmeasurement": 5752,
      "supports": 5753,
      "91": 5754,
      "AM": 5755,
      "lr": 5756,
      "lama": 5757,
      "uation": 5758,
      "âĨĴ": 5759,
      "Ġ----------------": 5760,
      "Ġtight": 5761,
      "Ġmapping": 5762,
      "Ġreduce": 5763,
      "Ġequ": 5764,
      "unfinished": 5765,
      "hod": 5766,
      "agr": 5767,
      "Ġ21": 5768,
      "ĠPre": 5769,
      "ĠModel": 5770,
      "Ġverbatim": 5771,
      "Ġless": 5772,
      "Ġcouple": 5773,
      "Ġ[\\\"": 5774,
      "Program": 5775,
      "Ġadjusted": 5776,
      "Ġdeeper": 5777,
      "Ġcorresponding": 5778,
      "Attribute": 5779,
      "Game": 5780,
      "aa": 5781,
      "wrap": 5782,
      "Ġcases": 5783,
      "eds": 5784,
      "Ġ\"//": 5785,
      "Ġprom": 5786,
      "abric": 5787,
      "Ġunto": 5788,
      "Ġunique": 5789,
      "Ġenv": 5790,
      "Ġenable": 5791,
      "ĠOp": 5792,
      "Ġautotun": 5793,
      "LETE": 5794,
      "blimp": 5795,
      "Ġapproval": 5796,
      "remote": 5797,
      "vari": 5798,
      "Ġholds": 5799,
      "Ġpropag": 5800,
      "SLERP": 5801,
      "cance": 5802,
      "skill": 5803,
      "Ġut": 5804,
      "Ġignore": 5805,
      "Ġfore": 5806,
      "imod": 5807,
      "ĠTe": 5808,
      "Ġcontrols": 5809,
      "256": 5810,
      "Ġcomputes": 5811,
      "mean": 5812,
      "Ġtemperature": 5813,
      "weights": 5814,
      "Ġrecords": 5815,
      "policy": 5816,
      "ĠTinyStories": 5817,
      "ĠPlaywright": 5818,
      "Ġuntouched": 5819,
      "(...": 5820,
      "Or": 5821,
      "oss": 5822,
      "zen": 5823,
      "ario": 5824,
      "vered": 5825,
      "Ġnegative": 5826,
      "aml": 5827,
      "ĠPAT": 5828,
      "Ġlets": 5829,
      "Ġsubagent": 5830,
      "Ġ>/": 5831,
      "short": 5832,
      "Ġsuppress": 5833,
      "ators": 5834,
      "autotune": 5835,
      "Ġidentical": 5836,
      "Ġextracts": 5837,
      "createElement": 5838,
      "Ġinserting": 5839,
      "Ġsentinel": 5840,
      "ĠPokÃ©mon": 5841,
      "\"</": 5842,
      "434": 5843,
      "audio": 5844,
      "cript": 5845,
      "dy": 5846,
      "known": 5847,
      "ratch": 5848,
      "Ġfits": 5849,
      "Ġpages": 5850,
      "Ġ`###": 5851,
      "Ġruff": 5852,
      "Ġhub": 5853,
      "Ġfive": 5854,
      "=\\\"#": 5855,
      "ĠDO": 5856,
      "ĠDe": 5857,
      "ĠDiffusion": 5858,
      "__.": 5859,
      "Ġassertion": 5860,
      "Ġdownstream": 5861,
      "Ġportion": 5862,
      "Ġexplo": 5863,
      "Ġdesired": 5864,
      "Ġacknowledge": 5865,
      "Ġmassive": 5866,
      "imodal": 5867,
      "fri": 5868,
      "huggingface": 5869,
      "iated": 5870,
      "ky": 5871,
      "xy": 5872,
      "}\\\"": 5873,
      "edy": 5874,
      "Ġbright": 5875,
      "rouch": 5876,
      "ancy": 5877,
      "through": 5878,
      "semb": 5879,
      "Ġsources": 5880,
      "logits": 5881,
      "ĠList": 5882,
      "Ġdecoder": 5883,
      "ĠflexDirection": 5884,
      "transparent": 5885,
      "toml": 5886,
      "location": 5887,
      "400": 5888,
      "Find": 5889,
      "KG": 5890,
      "iqu": 5891,
      "Ġfonts": 5892,
      "Ġdont": 5893,
      "Ġhuman": 5894,
      "Ġdest": 5895,
      "Ġleaving": 5896,
      "ĠNE": 5897,
      "Ġunne": 5898,
      "Ġâľ": 5899,
      "Ġ257": 5900,
      "}`);\\": 5901,
      "Ġsubstant": 5902,
      "immer": 5903,
      "beginPath": 5904,
      ",âĢĿ": 5905,
      "CE": 5906,
      "Calls": 5907,
      "Mod": 5908,
      "cam": 5909,
      "water": 5910,
      "writ": 5911,
      "Ġcertain": 5912,
      "Ġpuppeteer": 5913,
      "Ġdescript": 5914,
      "imes": 5915,
      "ifle": 5916,
      "Ġ\"**": 5917,
      "Ġ}));\\": 5918,
      "Ġchecker": 5919,
      "Ġmodes": 5920,
      "Ġlisten": 5921,
      "ĠDE": 5922,
      "Ġhandled": 5923,
      "Ġmoves": 5924,
      "Ġelim": 5925,
      "Ġ!=": 5926,
      "Ġcentral": 5927,
      "Exit": 5928,
      "object": 5929,
      "[:,": 5930,
      "animation": 5931,
      "Ġdetached": 5932,
      "hardware": 5933,
      "saved": 5934,
      "xis": 5935,
      "Ġsus": 5936,
      "Ġ```": 5937,
      "uns": 5938,
      "Ġshots": 5939,
      "traces": 5940,
      "ĠFirst": 5941,
      "ĠWor": 5942,
      "most": 5943,
      "++;\\": 5944,
      "helpers": 5945,
      "POST": 5946,
      "digits": 5947,
      "ĠReact": 5948,
      "LAY": 5949,
      "Ġ=========================================================": 5950,
      "Off": 5951,
      "gu": 5952,
      "mt": 5953,
      "ishing": 5954,
      "uses": 5955,
      "ĠCreate": 5956,
      "NTIN": 5957,
      "Ġuniform": 5958,
      "paths": 5959,
      "proj": 5960,
      "tmConfig": 5961,
      "Ġdocuments": 5962,
      "Ġviewport": 5963,
      "Ġbroader": 5964,
      "Ġpract": 5965,
      "Ġextend": 5966,
      "/*.": 5967,
      "COMPLETE": 5968,
      ")\",": 5969,
      "/_": 5970,
      "fn": 5971,
      "firm": 5972,
      "hile": 5973,
      "iciency": 5974,
      "ifiers": 5975,
      "Ġ180": 5976,
      "Ġcommon": 5977,
      "Ġplaces": 5978,
      "idea": 5979,
      "Ġbool": 5980,
      "letter": 5981,
      "Ġformatted": 5982,
      "Ġstreamed": 5983,
      "strip": 5984,
      "Ġincrease": 5985,
      "Ġfaster": 5986,
      "â£Ħ": 5987,
      "Ġexpanded": 5988,
      "Ġrepresent": 5989,
      "Ġdropped": 5990,
      "NTINEL": 5991,
      "One": 5992,
      "XES": 5993,
      "fto": 5994,
      "Ġbecomes": 5995,
      "()`.": 5996,
      "ĠFast": 5997,
      "ĠWait": 5998,
      "Ġspin": 5999,
      "Ġimplements": 6000,
      "Ġunderlying": 6001,
      "Ġblank": 6002,
      "Ġpreset": 6003,
      "Ġmarkup": 6004,
      "slerp": 6005,
      "Ġwebsite": 6006,
      "blocks": 6007,
      "Ġautomated": 6008,
      "includes": 6009,
      "Ġtriggers": 6010,
      "FileSync": 6011,
      "manual": 6012,
      "Ġpinpoint": 6013,
      "Ġkicked": 6014,
      "Ġfragment": 6015,
      "Ġutility": 6016,
      "Frequency": 6017,
      "SPA": 6018,
      "Te": 6019,
      "show": 6020,
      "wt": 6021,
      "orough": 6022,
      "ites": 6023,
      "Ġwatch": 6024,
      "Ġdy": 6025,
      "ades": 6026,
      "Ġ|\\": 6027,
      "These": 6028,
      "ĠWiki": 6029,
      "Ġenh": 6030,
      "(\\\"\\\\": 6031,
      "ĠOne": 6032,
      "Ġdocumented": 6033,
      "Ġmaxim": 6034,
      "Ġresponses": 6035,
      "vidia": 6036,
      "coda": 6037,
      "\\\"><": 6038,
      "Ġadjusting": 6039,
      "239": 6040,
      "clear": 6041,
      "Ġexplains": 6042,
      "Ġregression": 6043,
      "Ġtaken": 6044,
      "Nudges": 6045,
      "vices": 6046,
      "âĿ¯": 6047,
      "ĠX": 6048,
      "Ġsum": 6049,
      "stage": 6050,
      "rok": 6051,
      "Ġnumer": 6052,
      "uter": 6053,
      "Ġdamage": 6054,
      "Ġstating": 6055,
      "Ġforce": 6056,
      "Ġonto": 6057,
      "abilities": 6058,
      "ĠSm": 6059,
      "Ġyiel": 6060,
      "ruction": 6061,
      "ĠWS": 6062,
      "Ġdocstring": 6063,
      "Ġconfigured": 6064,
      "ĠOver": 6065,
      "SENTINEL": 6066,
      "âłĭ": 6067,
      "Ġinvol": 6068,
      "Ġnormalized": 6069,
      "Ġarchitect": 6070,
      "PATH": 6071,
      "Ġpiping": 6072,
      "Delta": 6073,
      "smoke": 6074,
      ")`,": 6075,
      "Bot": 6076,
      "Gemma": 6077,
      "bm": 6078,
      "fil": 6079,
      "warm": 6080,
      "Īâł": 6081,
      "ıº": 6082,
      "Ġbad": 6083,
      "Ġbold": 6084,
      "Ġthorough": 6085,
      "Ġdx": 6086,
      "Ġ130": 6087,
      "Ġservice": 6088,
      "ecause": 6089,
      "ponents": 6090,
      "ĠarXiv": 6091,
      "gered": 6092,
      "Ġinteract": 6093,
      "Ġlimiting": 6094,
      "Ġ70": 6095,
      "Ġvariant": 6096,
      "998": 6097,
      "ĠVLM": 6098,
      "extract": 6099,
      "smi": 6100,
      "Ġcomparison": 6101,
      "Ġscaffolding": 6102,
      "Ġnatural": 6103,
      "Ġstopped": 6104,
      "Documents": 6105,
      "\"`,": 6106,
      "240": 6107,
      "Jwt": 6108,
      "Left": 6109,
      "Task": 6110,
      "]*": 6111,
      "fineweb": 6112,
      "mult": 6113,
      "pace": 6114,
      "Ġpure": 6115,
      "istency": 6116,
      "Ġdeath": 6117,
      "Ġ2000": 6118,
      "Ġnewline": 6119,
      "Ġ\\\"./": 6120,
      "ĠCH": 6121,
      "Ġhealth": 6122,
      "ĠPer": 6123,
      "Ġ512": 6124,
      "ĠGame": 6125,
      "example": 6126,
      "ĠWith": 6127,
      "setattr": 6128,
      "Ġaccom": 6129,
      "Ġkeywords": 6130,
      "Ġprompting": 6131,
      "lette": 6132,
      "Ġtyping": 6133,
      "Ġtypically": 6134,
      "sidebar": 6135,
      "Ġentirely": 6136,
      "Ġtraceback": 6137,
      "Enter": 6138,
      "AgentJwt": 6139,
      "Ġreceived": 6140,
      "LocalAgentJwt": 6141,
      "Ġspecifying": 6142,
      "Ġversions": 6143,
      "Ġresources": 6144,
      "Rows": 6145,
      "Iter": 6146,
      "][": 6147,
      "bias": 6148,
      "dat": 6149,
      "photo": 6150,
      "stic": 6151,
      "oriz": 6152,
      "Ġbloom": 6153,
      "Ġease": 6154,
      "unter": 6155,
      "Ġconcer": 6156,
      "Ġgrow": 6157,
      "champion": 6158,
      "cell": 6159,
      "ĠBaby": 6160,
      "ĠRo": 6161,
      "Ġnotification": 6162,
      "Ġ45": 6163,
      "Ġperiod": 6164,
      "pecifically": 6165,
      "Ġclasses": 6166,
      "Ġauth": 6167,
      "Ġviewmodel": 6168,
      "igging": 6169,
      "RAL": 6170,
      "bots": 6171,
      "ROQ": 6172,
      "Ġtreat": 6173,
      "Ġpeak": 6174,
      "Animation": 6175,
      "Ġcommunicate": 6176,
      "ftover": 6177,
      "End": 6178,
      "Fable": 6179,
      "Geo": 6180,
      "UF": 6181,
      "ape": 6182,
      "gage": 6183,
      "ience": 6184,
      "rn": 6185,
      "Ġtied": 6186,
      "Ġaux": 6187,
      "athe": 6188,
      "Ġbal": 6189,
      "Ġdigging": 6190,
      "Ġexplan": 6191,
      "abor": 6192,
      "Ġboot": 6193,
      "loads": 6194,
      "ĠâĶĶ": 6195,
      "Inter": 6196,
      "Ġmarkers": 6197,
      "\\\"]\\": 6198,
      "Ġwhose": 6199,
      "Ġswit": 6200,
      "Ġvalidate": 6201,
      "Ġexplaining": 6202,
      "Ġmerged": 6203,
      "Ġmismatch": 6204,
      "THRE": 6205,
      "CACHE": 6206,
      "requirements": 6207,
      "ĠMoreover": 6208,
      "Dis": 6209,
      "Goal": 6210,
      "Server": 6211,
      "VE": 6212,
      "lat": 6213,
      "sum": 6214,
      "tuning": 6215,
      "}}": 6216,
      "orage": 6217,
      "Ġwind": 6218,
      "Ġbus": 6219,
      "Ġmed": 6220,
      "Ġrerun": 6221,
      "Ġnice": 6222,
      "Ġradius": 6223,
      "Ġscratch": 6224,
      "ffff": 6225,
      "ĠApp": 6226,
      "ĠPRO": 6227,
      "emy": 6228,
      "ĠEng": 6229,
      "Ġserves": 6230,
      "prob": 6231,
      "parents": 6232,
      "DEFAULT": 6233,
      "Ġproperty": 6234,
      "Ġendpoints": 6235,
      "Running": 6236,
      "Ġdrag": 6237,
      "LAMA": 6238,
      "types": 6239,
      "Ġ---------------------------------------------------------------------------\\": 6240,
      "Ġscenario": 6241,
      "Ġunnecessary": 6242,
      "=-": 6243,
      "PRO": 6244,
      "Qwen": 6245,
      "URL": 6246,
      "yaml": 6247,
      "Ġ);\\": 6248,
      "Ġsvg": 6249,
      "edit": 6250,
      "Ġwast": 6251,
      "Ġrely": 6252,
      "ĠTPS": 6253,
      "Ġgathe": 6254,
      "Ġratio": 6255,
      "Ġhome": 6256,
      "ĠScan": 6257,
      "ĠBut": 6258,
      "ĠMon": 6259,
      "Ġwords": 6260,
      "Ġ[...": 6261,
      "Ġreadability": 6262,
      "Ġhour": 6263,
      "Ġhover": 6264,
      "Ġcapturing": 6265,
      "parts": 6266,
      "Ġcleanup": 6267,
      "Ġincluded": 6268,
      "Ġconsensus": 6269,
      "headless": 6270,
      "Ġkills": 6271,
      "ĠTrans": 6272,
      "Ġpulled": 6273,
      "Ġcoding": 6274,
      "Ġgathered": 6275,
      "500": 6276,
      "PKG": 6277,
      "Sw": 6278,
      "pid": 6279,
      "Â±": 6280,
      "Ġtsc": 6281,
      "Ġai": 6282,
      "erve": 6283,
      "allow": 6284,
      "routes": 6285,
      "\\\"),\\": 6286,
      "chrome": 6287,
      "Ġbegin": 6288,
      "Ġvote": 6289,
      "\":\"": 6290,
      "Ġmast": 6291,
      "built": 6292,
      "Ġshapes": 6293,
      "argv": 6294,
      "Ġexecuting": 6295,
      "complet": 6296,
      "Ġmodest": 6297,
      "cluding": 6298,
      "Ġrespects": 6299,
      "Ġgamep": 6300,
      "Ġreprodu": 6301,
      "agraph": 6302,
      "SPAWN": 6303,
      "*$'": 6304,
      "But": 6305,
      "bers": 6306,
      "games": 6307,
      "lm": 6308,
      "material": 6309,
      "next": 6310,
      "nuniform": 6311,
      "say": 6312,
      "ĠZ": 6313,
      "oracle": 6314,
      "router": 6315,
      "Ġder": 6316,
      "change": 6317,
      "Ġtrim": 6318,
      "angulation": 6319,
      "../": 6320,
      "posite": 6321,
      "Ġsprites": 6322,
      "Ġprinting": 6323,
      "Ġcleaned": 6324,
      "codex": 6325,
      "Int": 6326,
      "Ġ$('": 6327,
      "Schema": 6328,
      "ĠWebGL": 6329,
      "ĠStart": 6330,
      "Channel": 6331,
      "Ġtaking": 6332,
      "termine": 6333,
      "Ġraised": 6334,
      "Dec": 6335,
      "TAL": 6336,
      "az": 6337,
      "cu": 6338,
      "fg": 6339,
      "ieve": 6340,
      "Ġmiddle": 6341,
      "Ġhref": 6342,
      "Ġdetermine": 6343,
      "Ġupcoming": 6344,
      "Ġinputs": 6345,
      "('.": 6346,
      "ĠError": 6347,
      "Ġunknown": 6348,
      "rypt": 6349,
      "lineTo": 6350,
      "Ġbob": 6351,
      "coll": 6352,
      "models": 6353,
      "author": 6354,
      "Ġdatasets": 6355,
      "Ġarchive": 6356,
      "roller": 6357,
      "Ġemitted": 6358,
      "Ġrepeat": 6359,
      "linder": 6360,
      "Result": 6361,
      "Ġfriends": 6362,
      "Ġachieve": 6363,
      "Ġstyling": 6364,
      "/@": 6365,
      "790": 6366,
      "Node": 6367,
      "WE": 6368,
      "]]": 6369,
      "ae": 6370,
      "cinct": 6371,
      "duration": 6372,
      "vocab": 6373,
      "Ġsd": 6374,
      "Ġwin": 6375,
      "Ġmag": 6376,
      "room": 6377,
      "roval": 6378,
      "Ġdense": 6379,
      "olog": 6380,
      "Ġrd": 6381,
      "âĶĢâĶ": 6382,
      "implement": 6383,
      "Ġpremature": 6384,
      "Ġserving": 6385,
      "Ġspread": 6386,
      "Ġdisposition": 6387,
      "Ġsuccinct": 6388,
      "Context": 6389,
      "Ġregard": 6390,
      "INCOMPLETE": 6391,
      "Ġidentifier": 6392,
      "Ġdiagnostic": 6393,
      "Ġdrops": 6394,
      "though": 6395,
      "Ġblobs": 6396,
      "Ġessentially": 6397,
      "âĸĪâĸĪâĸĪâĸĪâĸĪâĸĪâĸĪâĸĪâĸĪâĸĪâĸĪâĸĪâĸĪâĸĪâĸĪâĸĪâĸĪâĸĪâĸĪâĸĪâĸĪâĸĪâĸĪâĸĪâĸĪâĸĪâĸĪâĸĪâĸĪâĸĪâĸĪâĸĪ": 6398,
      "guilds": 6399,
      "Ġrecomm": 6400,
      "TEXTURE": 6401,
      "supportsLocalAgentJwt": 6402,
      "Rec": 6403,
      "ging": 6404,
      "mem": 6405,
      "rozen": 6406,
      "Ġreuse": 6407,
      "Ġland": 6408,
      "segment": 6409,
      "Ġoutside": 6410,
      "Ġoutcome": 6411,
      "Ġheartbeat": 6412,
      "():": 6413,
      "());\\": 6414,
      "ĠEvery": 6415,
      "ĠFix": 6416,
      "ĠFlex": 6417,
      "arkdown": 6418,
      "proc": 6419,
      "ĠDate": 6420,
      "Ġprocessed": 6421,
      "INK": 6422,
      "Ġthinks": 6423,
      "Ġgoing": 6424,
      "Ġclients": 6425,
      "Ġcraft": 6426,
      "Ġoperations": 6427,
      "Ġinvoking": 6428,
      "Ġincorpor": 6429,
      "ĠBlender": 6430,
      "Ġbridge": 6431,
      "ĠScanning": 6432,
      "Emit": 6433,
      "OUT": 6434,
      "Pl": 6435,
      "pad": 6436,
      "rl": 6437,
      "ration": 6438,
      "spl": 6439,
      "inal": 6440,
      "Ġrevis": 6441,
      "Ġdm": 6442,
      "Ġgames": 6443,
      "Ġ110": 6444,
      "Ġanno": 6445,
      "resol": 6446,
      "fff": 6447,
      "Ġcoord": 6448,
      "Ġoverview": 6449,
      "ĠData": 6450,
      "ĠDOM": 6451,
      "Ġâıº": 6452,
      "Ġstrong": 6453,
      "Ġmetal": 6454,
      "matches": 6455,
      "Ġlengths": 6456,
      "Entry": 6457,
      "(`${": 6458,
      "Ġ3001": 6459,
      "Ġqkv": 6460,
      "Ġindepend": 6461,
      "Ġsmoothstep": 6462,
      "character": 6463,
      "Ġdescriptive": 6464,
      "ĠFastAPI": 6465,
      "CID": 6466,
      "Tim": 6467,
      "gan": 6468,
      "Ġflo": 6469,
      "Ġbump": 6470,
      "Ġtoast": 6471,
      "Ġ`__": 6472,
      "dead": 6473,
      "Ġhtml": 6474,
      "Ġ'<": 6475,
      "ĠRes": 6476,
      "ĠGo": 6477,
      "=\\\"${": 6478,
      "Ġlooped": 6479,
      "ĠOK": 6480,
      "Ġâł": 6481,
      "viously": 6482,
      "Ġknows": 6483,
      "Ġconstructs": 6484,
      "pending": 6485,
      "Ġidentifiers": 6486,
      "arante": 6487,
      "Proceeding": 6488,
      "Ġfactor": 6489,
      "Verify": 6490,
      "Ġmanageable": 6491,
      "Ġpotentially": 6492,
      "Ġsemant": 6493,
      "Ġmachine": 6494,
      "warmup": 6495,
      "Ġgameplay": 6496,
      "Fp": 6497,
      "FREEBUFF": 6498,
      "Paperclip": 6499,
      "Sub": 6500,
      "TIME": 6501,
      "sort": 6502,
      "Ġske": 6503,
      "Ġcub": 6504,
      "ctory": 6505,
      "unces": 6506,
      "Ġraises": 6507,
      "Ġscoring": 6508,
      "Ġ\\\"\\\"": 6509,
      "ailies": 6510,
      "angle": 6511,
      "apture": 6512,
      "formed": 6513,
      "Ġintact": 6514,
      "Ġteich": 6515,
      "\\\":\\\"": 6516,
      "Ġlocally": 6517,
      "Ġphases": 6518,
      "Ġsmaller": 6519,
      "Ġinstalling": 6520,
      "ĠValueError": 6521,
      "Ġbuttons": 6522,
      "Ġboxes": 6523,
      "Ġsidebar": 6524,
      "totype": 6525,
      "Ġimprovement": 6526,
      "ORT": 6527,
      "Ġfilen": 6528,
      "Ġessential": 6529,
      "World": 6530,
      "Particles": 6531,
      "AnimationFrame": 6532,
      "ĠaiLogo": 6533,
      "\">`": 6534,
      "/{": 6535,
      "User": 6536,
      "ipe": 6537,
      "pg": 6538,
      "Ġtries": 6539,
      "research": 6540,
      "dec": 6541,
      "det": 6542,
      "uni": 6543,
      "Ġday": 6544,
      "Ġstall": 6545,
      "ĠTO": 6546,
      "Ġproc": 6547,
      "Ġvoid": 6548,
      "clone": 6549,
      "components": 6550,
      "Ġleftover": 6551,
      "Ġ36": 6552,
      "Ġboil": 6553,
      "Ġlocated": 6554,
      "Ġguid": 6555,
      "Ġindices": 6556,
      "Ġcrit": 6557,
      "Spheres": 6558,
      "OPEN": 6559,
      "response": 6560,
      "missing": 6561,
      "drawn": 6562,
      "directory": 6563,
      "Ġyields": 6564,
      "/${": 6565,
      "Light": 6566,
      "UNT": 6567,
      "day": 6568,
      "ĠĠĊĠĠ": 6569,
      "ĠTASK": 6570,
      "Ġforced": 6571,
      "Ġhiring": 6572,
      "xterm": 6573,
      "results": 6574,
      "Ġaspect": 6575,
      "Ġalice": 6576,
      "abl": 6577,
      "track": 6578,
      "Ġverdict": 6579,
      "idered": 6580,
      "Ġserved": 6581,
      "Ġenabled": 6582,
      "hesis": 6583,
      "before": 6584,
      "LIP": 6585,
      "Ġinteractions": 6586,
      "Ġpresumably": 6587,
      "Ġconsidered": 6588,
      "Ġtimer": 6589,
      "found": 6590,
      "brand": 6591,
      "Ġprimary": 6592,
      "Ġfrontend": 6593,
      "IONS": 6594,
      "specific": 6595,
      "Ġclaims": 6596,
      "Image": 6597,
      "Ġhanging": 6598,
      "Ġartifacts": 6599,
      "iques": 6600,
      "Offset": 6601,
      "DONE": 6602,
      "fNum": 6603,
      "hint": 6604,
      "sticky": 6605,
      "Ġremin": 6606,
      "Ġinher": 6607,
      "acer": 6608,
      "keep": 6609,
      "Ġtrig": 6610,
      "ĠNext": 6611,
      "exam": 6612,
      "indices": 6613,
      "apsed": 6614,
      "Ġinterrupt": 6615,
      "checker": 6616,
      "Ġâ£": 6617,
      "username": 6618,
      ")}</": 6619,
      "method": 6620,
      "mbol": 6621,
      "oblo": 6622,
      "Ġtrees": 6623,
      "Ġhyperparameters": 6624,
      "Ġpotential": 6625,
      "Ġexpert": 6626,
      "minimax": 6627,
      "Ġprepared": 6628,
      "180": 6629,
      ";\",": 6630,
      "AP": 6631,
      "fall": 6632,
      "sage": 6633,
      "âĹ": 6634,
      "Ġfade": 6635,
      "Ġ(`.": 6636,
      "Ġdive": 6637,
      "Ġbecome": 6638,
      "oded": 6639,
      "umed": 6640,
      "ĠSpecifically": 6641,
      "trl": 6642,
      "trunc": 6643,
      "hermes": 6644,
      "Ġhell": 6645,
      "ĠMod": 6646,
      "ĠFable": 6647,
      ");\",": 6648,
      "Ġqueries": 6649,
      "Ġparagraph": 6650,
      "Ġenforce": 6651,
      "Ġhandler": 6652,
      "ĠLook": 6653,
      "efine": 6654,
      "Ġdisk": 6655,
      "Ġdisco": 6656,
      "noEmit": 6657,
      "Ġ96": 6658,
      "ATA": 6659,
      "Ġdistribution": 6660,
      "Paths": 6661,
      "Ġcapabilities": 6662,
      "Ġphrasing": 6663,
      "Ġembedded": 6664,
      "randint": 6665,
      "attempts": 6666,
      "Col": 6667,
      "Le": 6668,
      "Let": 6669,
      "gemma": 6670,
      "pat": 6671,
      "ined": 6672,
      "remain": 6673,
      "ithout": 6674,
      "Ġthird": 6675,
      "Ġduration": 6676,
      "Ġasset": 6677,
      "Ġpretraining": 6678,
      "Ġheaders": 6679,
      "backend": 6680,
      "haul": 6681,
      "Ġlinter": 6682,
      "Ġpositive": 6683,
      "Ġdistill": 6684,
      "Ġsleeps": 6685,
      "ĠKL": 6686,
      "3001": 6687,
      "ĠDiscord": 6688,
      "Ġinvestigate": 6689,
      "Ġperfect": 6690,
      "'|": 6691,
      "AY": 6692,
      "Ad": 6693,
      "Dist": 6694,
      "Function": 6695,
      "efined": 6696,
      "hypot": 6697,
      "lora": 6698,
      "Ġreached": 6699,
      "announce": 6700,
      "Ġtoolbar": 6701,
      "files": 6702,
      "ĠWe": 6703,
      "points": 6704,
      "Ġseeing": 6705,
      "Ġconfigs": 6706,
      "Ġwrapped": 6707,
      "Ġpathlib": 6708,
      "ixel": 6709,
      "Trace": 6710,
      "ception": 6711,
      "Ġsucceeds": 6712,
      "Ġfilters": 6713,
      "Ġtransformers": 6714,
      "........": 6715,
      "Ġlogger": 6716,
      "Ġdeadline": 6717,
      "bda": 6718,
      "ELS": 6719,
      "Ġtechniques": 6720,
      "ragon": 6721,
      "Ġsuspect": 6722,
      "BLE": 6723,
      "LL": 6724,
      "Live": 6725,
      "Memory": 6726,
      "Round": 6727,
      "Stop": 6728,
      "dumps": 6729,
      "ners": 6730,
      "ĠâĶĢâĶĢâĶĢâĶĢâĶĢâĶĢâĶĢâĶĢâĶĢâĶĢâĶĢâĶĢâĶĢâĶĢâĶĢâĶĢâĶĢâĶĢâĶĢâĶĢâĶĢâĶĢâĶĢâĶĢâĶĢâĶĢâĶĢâĶĢâĶĢâĶĢâĶĢâĶĢâĶĢâĶĢâĶĢâĶĢâĶĢâĶĢâĶĢâĶĢ": 6731,
      "łâł": 6732,
      "Ġfabric": 6733,
      "Ġ`&": 6734,
      "dele": 6735,
      "deps": 6736,
      "entropy": 6737,
      "Ġmeas": 6738,
      "STRI": 6739,
      "ĠRT": 6740,
      "ĠES": 6741,
      "ĠEdge": 6742,
      "Ġpointing": 6743,
      "checking": 6744,
      "Ġassume": 6745,
      "SET": 6746,
      "blender": 6747,
      "overall": 6748,
      "party": 6749,
      "extraction": 6750,
      "â¡´": 6751,
      "merges": 6752,
      "ĠâĶľâĶĢ": 6753,
      "ĠDiffusionGemma": 6754,
      "LAYER": 6755,
      "ragonoid": 6756,
      "/`.": 6757,
      "ACT": 6758,
      "Candidate": 6759,
      "With": 6760,
      "fable": 6761,
      "starts": 6762,
      "Ġtok": 6763,
      "icated": 6764,
      "img": 6765,
      "ambda": 6766,
      "ifts": 6767,
      "chase": 6768,
      "Ġcleared": 6769,
      "ĠDist": 6770,
      "Ġspark": 6771,
      "Ġsymbol": 6772,
      "created": 6773,
      "Ġterms": 6774,
      "Ġcaused": 6775,
      "Ġwaits": 6776,
      "Ġintroduce": 6777,
      "ĠRuns": 6778,
      "Ġnormalize": 6779,
      "Ġlogged": 6780,
      "Ġcovering": 6781,
      "Ġparticular": 6782,
      "survival": 6783,
      "arguments": 6784,
      "43414": 6785,
      "790239": 6786,
      "Ġdmg": 6787,
      "){\\": 6788,
      "496": 6789,
      "Audio": 6790,
      "Phase": 6791,
      "String": 6792,
      "Turn": 6793,
      "bind": 6794,
      "tical": 6795,
      "zier": 6796,
      "Ġsens": 6797,
      "Ġrewrite": 6798,
      "ĠTL": 6799,
      "Ġrisk": 6800,
      "Ġexits": 6801,
      "Ġexpress": 6802,
      "Ġ27": 6803,
      "ĠSw": 6804,
      "Ġ\\\"$": 6805,
      "Ġ'\\": 6806,
      "ĠClock": 6807,
      "Ġresize": 6808,
      "phas": 6809,
      "Ġparallel": 6810,
      "Ġreadable": 6811,
      "bezier": 6812,
      "Ġimplementing": 6813,
      "Ġauthor": 6814,
      "ĠInside": 6815,
      "242": 6816,
      "Ġmember": 6817,
      "Ġcentering": 6818,
      "discard": 6819,
      "ergeCandidate": 6820,
      "ystemExit": 6821,
      "Ġ5090": 6822,
      "refresh": 6823,
      "Ġincorrect": 6824,
      "Ġevolution": 6825,
      "Ġconventions": 6826,
      "ĠPrints": 6827,
      "'}": 6828,
      "3000": 6829,
      "Cy": 6830,
      "ble": 6831,
      "custom": 6832,
      "sy": 6833,
      "Ġtun": 6834,
      "Ġturbulence": 6835,
      "replan": 6836,
      "Ġcop": 6837,
      "death": 6838,
      "lot": 6839,
      "oting": 6840,
      "Ġ240": 6841,
      "ĠRoblo": 6842,
      "Ġ48": 6843,
      "Ġperplexity": 6844,
      "Ġoverhaul": 6845,
      "Ġroll": 6846,
      "ĠOut": 6847,
      "ĠObject": 6848,
      "functional": 6849,
      "Ġopts": 6850,
      "ebb": 6851,
      "ĠJSONL": 6852,
      "Ġassess": 6853,
      "Ġgradients": 6854,
      "Ġremoval": 6855,
      "disable": 6856,
      "Space": 6857,
      "Ġlevels": 6858,
      "Request": 6859,
      "Ġjoining": 6860,
      "Ġaffecting": 6861,
      "Ġslower": 6862,
      "OLD": 6863,
      "embedding": 6864,
      "Ġbundle": 6865,
      "remains": 6866,
      "Speed": 6867,
      "bad": 6868,
      "direction": 6869,
      "jpg": 6870,
      "lb": 6871,
      "lt": 6872,
      "nudge": 6873,
      "Ġ]": 6874,
      "Ĳâķ": 6875,
      "Ġtid": 6876,
      "Ġflip": 6877,
      "**.": 6878,
      "uples": 6879,
      "Ġvary": 6880,
      "Ġtrail": 6881,
      "Ġscan": 6882,
      "ffort": 6883,
      "Ġconstruction": 6884,
      "ĠChat": 6885,
      "Ġ34": 6886,
      ");\"}": 6887,
      "avor": 6888,
      "procedural": 6889,
      "Ġblade": 6890,
      "Ġbuilder": 6891,
      "checks": 6892,
      "Ġrespons": 6893,
      "Ġguarante": 6894,
      "ithm": 6895,
      "Ġpositioned": 6896,
      "openai": 6897,
      "Ġsentence": 6898,
      "Ġ----------\\": 6899,
      "Ġhappened": 6900,
      "Token": 6901,
      "â¢¦": 6902,
      "Ġreliable": 6903,
      "simulation": 6904,
      "SHOLD": 6905,
      "extraBody": 6906,
      "ĠOpencode": 6907,
      "THRESHOLD": 6908,
      "linderGeometry": 6909,
      "Ġcubic": 6910,
      "decay": 6911,
      ";\"}": 6912,
      "Net": 6913,
      "Sec": 6914,
      "Scre": 6915,
      "bfloat": 6916,
      "banner": 6917,
      "nclass": 6918,
      "salvage": 6919,
      "Ġts": 6920,
      "Ġties": 6921,
      "edge": 6922,
      "lections": 6923,
      "Ġ`{": 6924,
      "urally": 6925,
      "âĶĤ": 6926,
      "oton": 6927,
      "assign": 6928,
      "emo": 6929,
      "Ġcohe": 6930,
      "ĠRAM": 6931,
      "ĠGemma": 6932,
      "ĠFloat": 6933,
      "ĠDet": 6934,
      "Ġwasn": 6935,
      "cost": 6936,
      "Ġending": 6937,
      "Ġpartial": 6938,
      "docker": 6939,
      "Ġcausal": 6940,
      "9911": 6941,
      "Ġaccent": 6942,
      "Ġoccurs": 6943,
      "ĠExperimentConfig": 6944,
      "5795": 6945,
      "Ġcoda": 6946,
      "Ġresponded": 6947,
      "ĠImplement": 6948,
      "Ġbunch": 6949,
      "Ġambient": 6950,
      "pairs": 6951,
      "ĠUpdated": 6952,
      "However": 6953,
      "Ġemoji": 6954,
      "Ġmaximum": 6955,
      "Ġhello": 6956,
      "CylinderGeometry": 6957,
      "Ġtidy": 6958,
      "DF": 6959,
      "audit": 6960,
      "got": 6961,
      "money": 6962,
      "rays": 6963,
      "orig": 6964,
      "detect": 6965,
      "Ġeas": 6966,
      "Ġdot": 6967,
      "Ġstruct": 6968,
      "Ġtrunk": 6969,
      "Ġatom": 6970,
      "Ġconfigur": 6971,
      "Ġgenerating": 6972,
      "250": 6973,
      "Ġidle": 6974,
      "Ġsnap": 6975,
      "Ġobvious": 6976,
      "Selection": 6977,
      "Ġ_,": 6978,
      "Ġinvolve": 6979,
      "Ġstructured": 6980,
      "Ġseparator": 6981,
      "Ġimprovements": 6982,
      "Ġanaly": 6983,
      "Comp": 6984,
      "Ġtechnique": 6985,
      "Ġstylesheet": 6986,
      "Ġdeclar": 6987,
      "Ġsorted": 6988,
      "Ġdiscarded": 6989,
      "Ġsyntact": 6990,
      "Buy": 6991,
      "mkdir": 6992,
      "Ġeye": 6993,
      "ĠTeich": 6994,
      "Ġnumeric": 6995,
      "'d": 6996,
      "'re": 6997,
      "Build": 6998,
      "Hence": 6999,
      "Not": 7000,
      "Pre": 7001,
      "QU": 7002,
      "Tiny": 7003,
      "candidate": 7004,
      "Ġmut": 7005,
      "Ġstock": 7006,
      "perform": 7007,
      "perty": 7008,
      "buf": 7009,
      "Ġinterval": 7010,
      "Ġids": 7011,
      "Ġreporting": 7012,
      "Ġoffsets": 7013,
      "aiLogo": 7014,
      "Ġaccident": 7015,
      "Ġpeople": 7016,
      "===\\": 7017,
      "Ġcalcul": 7018,
      "Ġalongside": 7019,
      "Only": 7020,
      "completion": 7021,
      "FRA": 7022,
      "GiB": 7023,
      "nr": 7024,
      "Ġ76": 7025,
      "Ġcached": 7026,
      "Ġcaching": 7027,
      "Ġ((": 7028,
      "Ġpropose": 7029,
      "ffn": 7030,
      "ĠMAT": 7031,
      "Ġleg": 7032,
      "Ġleak": 7033,
      "aster": 7034,
      "ruc": 7035,
      "Ġspawns": 7036,
      "ĠuseState": 7037,
      "Ġheads": 7038,
      "mitted": 7039,
      "Ġresulting": 7040,
      "Ġterm": 7041,
      "Ġmultimodal": 7042,
      "Ġcomputation": 7043,
      "Ġterminated": 7044,
      "ributes": 7045,
      "effect": 7046,
      "Ġaddressed": 7047,
      "Ġtweaking": 7048,
      "Ġproblems": 7049,
      "Ġformul": 7050,
      "ĠAttention": 7051,
      "AdamW": 7052,
      "delete": 7053,
      "Done": 7054,
      "PT": 7055,
      "UP": 7056,
      "WS": 7057,
      "caps": 7058,
      "motion": 7059,
      "rm": 7060,
      "sho": 7061,
      "ĊĠĠĠĠ": 7062,
      "Ġty": 7063,
      "Ġtqdm": 7064,
      "Ġnudge": 7065,
      "Ġdom": 7066,
      "secut": 7067,
      "toggle": 7068,
      "Ġorgan": 7069,
      "ĠExt": 7070,
      "Ġshift": 7071,
      "Ġunrelated": 7072,
      "Ġspaces": 7073,
      "both": 7074,
      "Ġintensity": 7075,
      "Ġundefined": 7076,
      "Stream": 7077,
      "Ġ2025": 7078,
      "Inspect": 7079,
      "Prog": 7080,
      "GET": 7081,
      "Ġweapons": 7082,
      "Ġisolated": 7083,
      "Ġ'^\\\\": 7084,
      "ĠVerify": 7085,
      "Ġaverage": 7086,
      "Ġguidance": 7087,
      "Ġinherit": 7088,
      "Ġsyntactically": 7089,
      "secutive": 7090,
      "'])": 7091,
      ">=": 7092,
      "Act": 7093,
      "Caveat": 7094,
      "FX": 7095,
      "Face": 7096,
      "SFT": 7097,
      "Turbulence": 7098,
      "cision": 7099,
      "circle": 7100,
      "db": 7101,
      "lace": 7102,
      "ě[": 7103,
      "Ġtuples": 7104,
      "Ġ`$": 7105,
      "illions": 7106,
      "idual": 7107,
      "âĶĢâĶĢâĶĢâĶĢâĶĢâĶĢ": 7108,
      "ĠMO": 7109,
      "ĠEns": 7110,
      "Ġblocking": 7111,
      "ĠWhile": 7112,
      "Ġlistening": 7113,
      "ĠĠĠĠĠĠĠĠĠĠĠĠĠĠĠĠĠĠĠĠĠĠĠĠĠĠĠĠĠĠĠĠĠĠĠĠĠĠĠĠĠĠĠĠĠĠĠĠĠĠĠĠĠĠĠĠĠĠĠĠĠĠĠĠĠĠĠĠĠĠĠĠĠĠĠĠĠĠĠĠĠĠĠĠĠĠĠĠĠĠĠĠĠĠĠĠĠĠĠĠĠĠĠĠĠĠĠĠĠĠĠĠĠĠĠĠĠĠĠĠĠĠĠĠĠĠĠĠ": 7114,
      "Ġdisabled": 7115,
      "Ġspecified": 7116,
      "waiting": 7117,
      "Ġresponsive": 7118,
      "Ġpalette": 7119,
      "company": 7120,
      "generated": 7121,
      "Ġselector": 7122,
      "Ġsafety": 7123,
      "Ġtechnical": 7124,
      "Ġcycle": 7125,
      "Ġdedicated": 7126,
      "LEVELS": 7127,
      "Ġinterpolation": 7128,
      "Ġstrategy": 7129,
      "Ġderived": 7130,
      "Timer": 7131,
      "Ġsemantics": 7132,
      "/:": 7133,
      "AGE": 7134,
      "DATA": 7135,
      "Earlier": 7136,
      "LLM": 7137,
      "Make": 7138,
      "Sky": 7139,
      "You": 7140,
      "ZE": 7141,
      "facts": 7142,
      "Ġsed": 7143,
      "Ġsix": 7144,
      "Ġmuzzle": 7145,
      "Ġinfer": 7146,
      "Ġasym": 7147,
      "Ġ})": 7148,
      "Ġunint": 7149,
      "Ġlistener": 7150,
      "Ġmeter": 7151,
      "trained": 7152,
      "Ġanimated": 7153,
      "codegen": 7154,
      "139": 7155,
      "Ġinstallation": 7156,
      "Ġdistance": 7157,
      "Ġintrodu": 7158,
      "translate": 7159,
      "losses": 7160,
      "Ġforwards": 7161,
      "Ġapplies": 7162,
      "datasets": 7163,
      "Ġobserv": 7164,
      "google": 7165,
      "Ġshadows": 7166,
      "querySelectorAll": 7167,
      "Ġbehind": 7168,
      "elems": 7169,
      "ĠSDPA": 7170,
      "Ġtwice": 7171,
      "---|---|": 7172,
      "ĠPATCH": 7173,
      "Ġsuccinctly": 7174,
      "Ġcritical": 7175,
      ":`": 7176,
      "Chat": 7177,
      "ValueError": 7178,
      "bw": 7179,
      "cmd": 7180,
      "evol": 7181,
      "fb": 7182,
      "mp": 7183,
      "}.": 7184,
      "ãĢ": 7185,
      "Ļâ¢¦": 7186,
      "Ġos": 7187,
      "hour": 7188,
      "Ġbeats": 7189,
      "tems": 7190,
      "Ġasynchron": 7191,
      "Ġimpact": 7192,
      "Ġunexpected": 7193,
      "Status": 7194,
      "note": 7195,
      "Ġtranscript": 7196,
      "CODE": 7197,
      "241": 7198,
      "catalog": 7199,
      "BoxGeometry": 7200,
      "subprocess": 7201,
      "cpu": 7202,
      "Ġfiltered": 7203,
      "Ġpacking": 7204,
      "earth": 7205,
      "ĠInstead": 7206,
      "nife": 7207,
      "Īâł³": 7208,
      "Ġtsconfig": 7209,
      "/`,": 7210,
      "HH": 7211,
      "Per": 7212,
      "Prompt": 7213,
      "RY": 7214,
      "Value": 7215,
      "bug": 7216,
      "cles": 7217,
      "fit": 7218,
      "alive": 7219,
      "Ġmotion": 7220,
      "Ġgun": 7221,
      "Ġglob": 7222,
      "ĠĠĠĠĠĠĠĠĠĠĠĠĠĠĠĠĠ": 7223,
      "Ġprototype": 7224,
      "Ġ\\\"-": 7225,
      "ails": 7226,
      "izmo": 7227,
      "Ġ56": 7228,
      "Ġviol": 7229,
      "README": 7230,
      "copy": 7231,
      "Ġgeneral": 7232,
      "ĠOEC": 7233,
      "Ġfog": 7234,
      "Ġ700": 7235,
      "Ġcheckpointing": 7236,
      "Invoke": 7237,
      "Ġmanual": 7238,
      "Ġemphas": 7239,
      "Ġinteger": 7240,
      "efficiency": 7241,
      "ĠExecut": 7242,
      "Ġprice": 7243,
      "Ġplaceholders": 7244,
      "OLLAMA": 7245,
      "Ġrepeatedly": 7246,
      "Ġcheap": 7247,
      "MSNorm": 7248,
      "150": 7249,
      "?âĢĿ": 7250,
      "ET": 7251,
      "IFI": 7252,
      "hup": 7253,
      "ike": 7254,
      "itative": 7255,
      "Ġfrequ": 7256,
      "Ġwave": 7257,
      "Ġ`@": 7258,
      "urrent": 7259,
      "selection": 7260,
      "Ġasser": 7261,
      "ĠFine": 7262,
      "Ġ[]": 7263,
      "ĠDefine": 7264,
      "login": 7265,
      "akeup": 7266,
      "Ġsnippets": 7267,
      "Source": 7268,
      "MPT": 7269,
      "tokenizer": 7270,
      "strict": 7271,
      "Ġidentify": 7272,
      "Ġgreedy": 7273,
      "hentic": 7274,
      "Matrix": 7275,
      "Ġhints": 7276,
      "Ġenco": 7277,
      "ipsis": 7278,
      "Ġgains": 7279,
      "Ġannotations": 7280,
      "contained": 7281,
      "Executed": 7282,
      "resolution": 7283,
      "<<": 7284,
      "Easy": 7285,
      "categ": 7286,
      "global": 7287,
      "la": 7288,
      "range": 7289,
      "Ġtint": 7290,
      "Ġsx": 7291,
      "Ġfancy": 7292,
      "alformed": 7293,
      "Ġps": 7294,
      "Ġlaw": 7295,
      "Ġstory": 7296,
      "Ġconver": 7297,
      "Ġgist": 7298,
      "Ġoften": 7299,
      "idx": 7300,
      "Ġdemo": 7301,
      "Ġ}\",": 7302,
      "cling": 7303,
      "ĠAudio": 7304,
      "services": 7305,
      "Ġcheckbox": 7306,
      "ĠGener": 7307,
      "('--": 7308,
      "noise": 7309,
      "Ġcounting": 7310,
      "ĠTraining": 7311,
      "ROOT": 7312,
      "ricul": 7313,
      "Ġallowed": 7314,
      "Sphere": 7315,
      "Ġchunks": 7316,
      "Ġordering": 7317,
      "bunx": 7318,
      "Ġenumerate": 7319,
      "Ġrevised": 7320,
      "AYPO": 7321,
      "IFIED": 7322,
      ")\"}": 7323,
      "Gain": 7324,
      "RID": 7325,
      "cad": 7326,
      "dr": 7327,
      "den": 7328,
      "dash": 7329,
      "gor": 7330,
      "gpu": 7331,
      "Ġign": 7332,
      "Ġcircle": 7333,
      "Ġrebuild": 7334,
      "Ġrefined": 7335,
      "Ġ(~": 7336,
      "Ġdf": 7337,
      "peak": 7338,
      "todo": 7339,
      "Ġ250": 7340,
      "pyproject": 7341,
      "Ġalone": 7342,
      "Ġaltern": 7343,
      "ĠBo": 7344,
      "ĠUn": 7345,
      "enced": 7346,
      "Ġrotation": 7347,
      "feed": 7348,
      "Ġfilesystem": 7349,
      "ĠLO": 7350,
      "Ġsuggestion": 7351,
      "Ġiterates": 7352,
      "Ġiterations": 7353,
      "Ġocc": 7354,
      "general": 7355,
      "ALL": 7356,
      "Ġreplaces": 7357,
      "small": 7358,
      "Ġhappens": 7359,
      "validate": 7360,
      "Blocks": 7361,
      "ĠtranslateY": 7362,
      "ĠBabyLM": 7363,
      "Ġregardless": 7364,
      "łâłŀ": 7365,
      ",'": 7366,
      "GROQ": 7367,
      "Sparse": 7368,
      "Yaw": 7369,
      "cb": 7370,
      "lu": 7371,
      "ĠÂ±": 7372,
      "regist": 7373,
      "Ġfig": 7374,
      "ising": 7375,
      "Ġmist": 7376,
      "Ġnor": 7377,
      "ĠIts": 7378,
      "llib": 7379,
      "Ġdb": 7380,
      "urllib": 7381,
      "Ġnested": 7382,
      "ĠBack": 7383,
      "ĠPDF": 7384,
      "Ġabs": 7385,
      "grade": 7386,
      "168": 7387,
      "Ġolder": 7388,
      "Ġmultip": 7389,
      "192": 7390,
      "Ġsuggestions": 7391,
      "ierarch": 7392,
      "Ġports": 7393,
      "Change": 7394,
      "Ġapplying": 7395,
      "973": 7396,
      "Ġexception": 7397,
      "controls": 7398,
      "counts": 7399,
      "ĠSelect": 7400,
      "Ġthoughts": 7401,
      "ĠArch": 7402,
      "Ġdeliver": 7403,
      "deepseek": 7404,
      "Iterations": 7405,
      "ĠEnsure": 7406,
      "512": 7407,
      "ARA": 7408,
      "Ext": 7409,
      "Items": 7410,
      "Ratio": 7411,
      "SC": 7412,
      "king": 7413,
      "pitch": 7414,
      "Ġaim": 7415,
      "Ġaxis": 7416,
      "atory": 7417,
      "Ġtold": 7418,
      "utdown": 7419,
      "Ġindiv": 7420,
      "llipsis": 7421,
      "Ġglow": 7422,
      "ained": 7423,
      "appro": 7424,
      "Ġalgor": 7425,
      "Ġ}\"}": 7426,
      "ods": 7427,
      "Ġ\\\"\\\\": 7428,
      "ĠBoth": 7429,
      "Ġ(`-": 7430,
      "Ġalloc": 7431,
      "Ġunits": 7432,
      "Ġothers": 7433,
      "arer": 7434,
      "Ġdecides": 7435,
      "Ġsmarter": 7436,
      "Ġvariants": 7437,
      "measure": 7438,
      "Ġtmp": 7439,
      "ĠRunPaths": 7440,
      "Ġcapacity": 7441,
      "Ġinsertion": 7442,
      "opts": 7443,
      "ĠCompute": 7444,
      "SIZE": 7445,
      "Ġacknowled": 7446,
      "nbsp": 7447,
      "Ġpropagate": 7448,
      "Ġsubstantial": 7449,
      "ĠWikiText": 7450,
      "Ġbusy": 7451,
      "Ġsymbols": 7452,
      "/,": 7453,
      "=${": 7454,
      "fmt": 7455,
      "pgrep": 7456,
      "sun": 7457,
      "ĊĊĠĠ": 7458,
      "Ġtuning": 7459,
      "hether": 7460,
      "Ġtodo": 7461,
      "Ġmini": 7462,
      "icial": 7463,
      "Ġhoriz": 7464,
      "iding": 7465,
      "plain": 7466,
      "plied": 7467,
      "updated": 7468,
      "Ġassemb": 7469,
      "pop": 7470,
      "thinker": 7471,
      "Ġadv": 7472,
      "Ġ'./": 7473,
      "udfl": 7474,
      "cessing": 7475,
      "------------": 7476,
      "Ġgenerations": 7477,
      "Ġ600000": 7478,
      "ogn": 7479,
      "Ġrefine": 7480,
      "Ġmissed": 7481,
      "Property": 7482,
      "Ġassertions": 7483,
      "Ġinformed": 7484,
      "Ġ$?": 7485,
      "ĠuTime": 7486,
      "Ġinitialization": 7487,
      "currentColor": 7488,
      "Ġcapability": 7489,
      "Ġbriefly": 7490,
      "Ġminimum": 7491,
      "Ġhelpful": 7492,
      "Ġcrosshair": 7493,
      "lined": 7494,
      "Ġfilm": 7495,
      "Ġconnection": 7496,
      "ĠContinue": 7497,
      "rokes": 7498,
      "Ġarchitectures": 7499,
      "Ġtriggered": 7500,
      "EAD": 7501,
      "Sun": 7502,
      "around": 7503,
      "fa": 7504,
      "non": 7505,
      "rt": 7506,
      "}'": 7507,
      "īâł": 7508,
      "include": 7509,
      "Ġfun": 7510,
      "Ġreally": 7511,
      "ĠIss": 7512,
      "users": 7513,
      "abling": 7514,
      "ĠBenchmark": 7515,
      "ĠRan": 7516,
      "hosen": 7517,
      "ĠĠĠĠĠĠĠĠĠĠĠĠĠĠĠĠĠĠĠĠĠĠĠĠĠĠĠĠĠĠĠĠĠĠĠĠĠĠĠĠĠĠĠĠĠĠĠĠĠĠĠĠĠĠĠĠĠĠĠĠĠĠĠĠĠĠĠĠĠĠĠĠĠĠĠĠĠĠĠĠĠĠĠĠĠĠĠĠĠĠĠĠĠĠĠĠĠĠĠĠĠĠĠĠĠĠĠĠĠĠĠĠĠĠĠĠĠĠĠĠĠĠĠĠĠĠĠĠĠĠĠĠĠĠĠĠĠĠĠĠĠĠĠĠ": 7518,
      "Ġ99": 7519,
      "codes": 7520,
      "Ġsometimes": 7521,
      "\\\"))\\": 7522,
      "Ġtracks": 7523,
      "sequence": 7524,
      "Ġproblematic": 7525,
      "zeros": 7526,
      "Anthropic": 7527,
      "Ġpreventing": 7528,
      "Ġinjected": 7529,
      "Ġcategory": 7530,
      "STEPS": 7531,
      "Ġangle": 7532,
      "ology": 7533,
      "ILE": 7534,
      "Lock": 7535,
      "Up": 7536,
      "bq": 7537,
      "dynam": 7538,
      "nvidia": 7539,
      "speed": 7540,
      "td": 7541,
      "}\\\\": 7542,
      "heartbeat": 7543,
      "Ġcp": 7544,
      "Ġwid": 7545,
      "Ġbigg": 7546,
      "Ġthumb": 7547,
      "Ġ(?:": 7548,
      "verified": 7549,
      "Ġloader": 7550,
      "Ġbelong": 7551,
      "Ġdemon": 7552,
      "Ġ23": 7553,
      "endly": 7554,
      "ĠSparse": 7555,
      "Ġshouldn": 7556,
      "Ġservers": 7557,
      "nohup": 7558,
      "Ġexpectation": 7559,
      "Ġwobb": 7560,
      "Ġsimulate": 7561,
      "atively": 7562,
      "189": 7563,
      "Ġhaving": 7564,
      "Ġbrand": 7565,
      "Ġgrepping": 7566,
      "failures": 7567,
      "caster": 7568,
      "Command": 7569,
      "Ġmeasurements": 7570,
      "Ġdedu": 7571,
      "Approval": 7572,
      "Ġlocked": 7573,
      "waitForSelector": 7574,
      "Ġdigits": 7575,
      "Ġswitched": 7576,
      "ĠEngine": 7577,
      "Ġincorporate": 7578,
      "ĠRoblox": 7579,
      "Ġdemonstr": 7580,
      "%{": 7581,
      ">{\"": 7582,
      "Found": 7583,
      "every": 7584,
      "matically": 7585,
      "oec": 7586,
      "yck": 7587,
      "Ġ\\\\": 7588,
      "inates": 7589,
      "insert": 7590,
      "report": 7591,
      "Ġfake": 7592,
      "Ġpad": 7593,
      "Ġmalformed": 7594,
      "rocessing": 7595,
      "uth": 7596,
      "Ġconvey": 7597,
      "ulse": 7598,
      "Ġprojection": 7599,
      "Ġdeps": 7600,
      "respawn": 7601,
      "post": 7602,
      "emove": 7603,
      "Ġlearn": 7604,
      "ĠGit": 7605,
      "Ġrecogn": 7606,
      "feTurbulence": 7607,
      "setProperty": 7608,
      "untime": 7609,
      "\\\",\\\"": 7610,
      "Ġ900": 7611,
      "Ġlocations": 7612,
      "Ġlaunches": 7613,
      "Ġresolves": 7614,
      "Ġmirroring": 7615,
      "Ġhybrid": 7616,
      "Ġprecisely": 7617,
      "plugin": 7618,
      "ĠNaNs": 7619,
      "cerpt": 7620,
      "Implement": 7621,
      "ploy": 7622,
      "arsity": 7623,
      "Ġrefactor": 7624,
      "Order": 7625,
      "Ġreproduc": 7626,
      "ĠRTX": 7627,
      "Ġvarying": 7628,
      "){": 7629,
      "110": 7630,
      "Effect": 7631,
      "Groq": 7632,
      "Hit": 7633,
      "KB": 7634,
      "`;\\": 7635,
      "fers": 7636,
      "km": 7637,
      "uly": 7638,
      "ons": 7639,
      "Ġfalls": 7640,
      "Ġwired": 7641,
      "Ġbits": 7642,
      "image": 7643,
      "Ġ135": 7644,
      "otes": 7645,
      "ceil": 7646,
      "Ġtruly": 7647,
      "ĠSE": 7648,
      "ĠST": 7649,
      "traced": 7650,
      "ĠBO": 7651,
      "Ġcanopy": 7652,
      "Ġtooling": 7653,
      "liho": 7654,
      "Ġ404": 7655,
      "Then": 7656,
      "Ġmodern": 7657,
      "ERAT": 7658,
      "ĠLog": 7659,
      "loaded": 7660,
      "Ġactionable": 7661,
      "ĠrequestAnimationFrame": 7662,
      "scroll": 7663,
      "Ġsends": 7664,
      "Ġtyped": 7665,
      "rolling": 7666,
      "Ġmonitoring": 7667,
      "sdpa": 7668,
      "quantize": 7669,
      "Ġcommunity": 7670,
      "Ġmajority": 7671,
      "Ġtimestamps": 7672,
      "Ġdiscuss": 7673,
      "cancel": 7674,
      "Ġtrailing": 7675,
      "otonic": 7676,
      "ALI": 7677,
      "Actions": 7678,
      "CLIP": 7679,
      "Hint": 7680,
      "IF": 7681,
      "VAL": 7682,
      "]`.": 7683,
      "aze": 7684,
      "gated": 7685,
      "nopen": 7686,
      "payload": 7687,
      "sx": 7688,
      "squiggle": 7689,
      "vE": 7690,
      "Ġtit": 7691,
      "Ġcruc": 7692,
      "stack": 7693,
      "Ġtook": 7694,
      "Ġ`</": 7695,
      "Ġlit": 7696,
      "usr": 7697,
      "Ġrng": 7698,
      "teacher": 7699,
      "odies": 7700,
      "clusion": 7701,
      "ĠString": 7702,
      "Ġ/>\\": 7703,
      "\\\\\\\":": 7704,
      "Ġwording": 7705,
      "ĠNew": 7706,
      "exists": 7707,
      "Ġunused": 7708,
      "ĠTHINK": 7709,
      "153": 7710,
      "Ġmaintain": 7711,
      "Ġconstructor": 7712,
      "Ġbreaking": 7713,
      "Ġbenchmarking": 7714,
      "Ġgoes": 7715,
      "TOP": 7716,
      "Ġextracted": 7717,
      "Ġsimilarly": 7718,
      "listen": 7719,
      "MAPS": 7720,
      "mbient": 7721,
      "wordmark": 7722,
      "Point": 7723,
      "option": 7724,
      "moveTo": 7725,
      "Ġinvokes": 7726,
      "Ġ2900": 7727,
      "â¡Ģ": 7728,
      "Ġexamined": 7729,
      "Ġcosts": 7730,
      "Ġ{};\\": 7731,
      "VERIFIED": 7732,
      "Ġnarrow": 7733,
      "BOXES": 7734,
      "PERCLIP": 7735,
      "splice": 7736,
      "fallback": 7737,
      "â¡´âłĭ": 7738,
      "Ġwobble": 7739,
      "more": 7740,
      "pick": 7741,
      "suc": 7742,
      "tps": 7743,
      "tled": 7744,
      "Ġ],\\": 7745,
      "remo": 7746,
      "Ġsfx": 7747,
      "Ġcfg": 7748,
      "rot": 7749,
      "Ġrecompile": 7750,
      "Ġreverse": 7751,
      "Ġconcept": 7752,
      "iff": 7753,
      "Ġlost": 7754,
      "ups": 7755,
      "endor": 7756,
      "ĠSh": 7757,
      "ĠCl": 7758,
      "Ġ/*": 7759,
      "ĠMap": 7760,
      "Ġ300000": 7761,
      "Ġaggre": 7762,
      "ĠHerm": 7763,
      "feature": 7764,
      "loading": 7765,
      "calle": 7766,
      "marker": 7767,
      "Ġgrind": 7768,
      "Ġdivergence": 7769,
      "Train": 7770,
      "Ġbrowsers": 7771,
      "monotonic": 7772,
      "Ġlightweight": 7773,
      "Ġallows": 7774,
      "\\\"\\\"\\\"": 7775,
      "Ġsequences": 7776,
      "Ġquantized": 7777,
      "Ġmanagement": 7778,
      "Ġparamater": 7779,
      "attend": 7780,
      "Buf": 7781,
      "Executing": 7782,
      "ĠFiles": 7783,
      "Ġgraphics": 7784,
      "presumably": 7785,
      "ĠModels": 7786,
      "Module": 7787,
      "Ġexplanation": 7788,
      "kmn": 7789,
      "720": 7790,
      "900": 7791,
      "GO": 7792,
      "Get": 7793,
      "SA": 7794,
      "Why": 7795,
      "]:": 7796,
      "mas": 7797,
      "mid": 7798,
      "rb": 7799,
      "Ġcwd": 7800,
      "Ġband": 7801,
      "Ġtogg": 7802,
      "del": 7803,
      "Ġinset": 7804,
      "ĠTupleType": 7805,
      "under": 7806,
      "rench": 7807,
      "Ġ*=": 7808,
      "Ġleaf": 7809,
      "exe": 7810,
      "prop": 7811,
      "Ġarrays": 7812,
      "bered": 7813,
      "param": 7814,
      "bedo": 7815,
      "Ġcompat": 7816,
      "Ġterrain": 7817,
      "AIN": 7818,
      "Ġavoids": 7819,
      "autocast": 7820,
      "distill": 7821,
      "Ġexpensive": 7822,
      "ummarize": 7823,
      "Ġexceeds": 7824,
      "signals": 7825,
      "eaderboardEntry": 7826,
      "riculum": 7827,
      "%;\\": 7828,
      ";}": 7829,
      "Suggest": 7830,
      "ales": 7831,
      "dx": 7832,
      "âĨ": 7833,
      "ïĲ": 7834,
      "ĠïĲ": 7835,
      "reco": 7836,
      "Ġstdin": 7837,
      "Ġstores": 7838,
      "verdict": 7839,
      "Ġhierarch": 7840,
      "aging": 7841,
      "Ġ160": 7842,
      "Ġbeat": 7843,
      "Ġcomposite": 7844,
      "Ġanch": 7845,
      "ĠAuto": 7846,
      "ĠCI": 7847,
      "ĠCS": 7848,
      "rence": 7849,
      "ugment": 7850,
      "Ġreturncode": 7851,
      "Ġpredict": 7852,
      "Ġbacktest": 7853,
      "exist": 7854,
      "expression": 7855,
      "Ġdisable": 7856,
      "LINE": 7857,
      "Ġfoam": 7858,
      "Ġinsight": 7859,
      "Ġgrab": 7860,
      "COUNT": 7861,
      "247": 7862,
      "Ġindicated": 7863,
      "INY": 7864,
      "Ġremoving": 7865,
      "Ġimproving": 7866,
      "Ġextracting": 7867,
      "React": 7868,
      "Ġfocusing": 7869,
      "Ġperson": 7870,
      "Ġhappen": 7871,
      "TTTTTTTT": 7872,
      "Ġnavigate": 7873,
      "Ġcalculation": 7874,
      "IIII": 7875,
      "Ġclarity": 7876,
      "ynchronize": 7877,
      "Ġprogrammatically": 7878,
      "ĠAdjust": 7879,
      "Ġdestination": 7880,
      "written": 7881,
      "Ġlisteners": 7882,
      "truncated": 7883,
      "Screen": 7884,
      "/__": 7885,
      "Acc": 7886,
      "Cap": 7887,
      "Qu": 7888,
      "TupleType": 7889,
      "When": 7890,
      "pm": 7891,
      "patch": 7892,
      "ĊĠĠĠĠĠĠĠĠĠĠĠĠĠĠĠ": 7893,
      "Ġtick": 7894,
      "enable": 7895,
      "001": 7896,
      "imb": 7897,
      "Ġconsecutive": 7898,
      "ursive": 7899,
      "ption": 7900,
      "Ġ\"###": 7901,
      "Ġshooter": 7902,
      "anges": 7903,
      "ĠPTY": 7904,
      "Ġvertical": 7905,
      "emini": 7906,
      "Ġ38": 7907,
      "minutes": 7908,
      "ĠFunction": 7909,
      "exper": 7910,
      "available": 7911,
      "Ġoverrid": 7912,
      "ĠDyck": 7913,
      "Ġsparsity": 7914,
      "bob": 7915,
      "ĠOr": 7916,
      "modeling": 7917,
      "Ġletters": 7918,
      "Ġidx": 7919,
      "Ġexecutes": 7920,
      "Ġ1024": 7921,
      "Ġconsistency": 7922,
      "Ġsynchron": 7923,
      "strong": 7924,
      "RAM": 7925,
      "Ġsequentially": 7926,
      "className": 7927,
      "Ġpersistent": 7928,
      "\\\"/>\\": 7929,
      "Issue": 7930,
      "Ġquotes": 7931,
      "container": 7932,
      "^^^^^^^^": 7933,
      "GHTS": 7934,
      "ĠRoPE": 7935,
      "Ġnicely": 7936,
      "Plan": 7937,
      "foundry": 7938,
      "Ġ`&&": 7939,
      "callees": 7940,
      "->": 7941,
      "Grid": 7942,
      "IVE": 7943,
      "Ret": 7944,
      "Usage": 7945,
      "ev": 7946,
      "kit": 7947,
      "puppeteer": 7948,
      "synchronize": 7949,
      "};\\": 7950,
      "hest": 7951,
      "onest": 7952,
      "Ġfli": 7953,
      "Ġwalls": 7954,
      "isions": 7955,
      "Ġtoggle": 7956,
      "ctaves": 7957,
      "annot": 7958,
      "Ġinvent": 7959,
      "Ġ(\\\"": 7960,
      "lled": 7961,
      "ette": 7962,
      "etime": 7963,
      "Ġexec": 7964,
      "Ġusually": 7965,
      "Ġdecre": 7966,
      "ffd": 7967,
      "ively": 7968,
      "Ġusername": 7969,
      "Ġheld": 7970,
      "ĠMini": 7971,
      "Ġprev": 7972,
      "Ġpark": 7973,
      "commands": 7974,
      "redu": 7975,
      "pointer": 7976,
      "__`": 7977,
      "ĠâīĪ": 7978,
      "ĠInter": 7979,
      "Ġmeta": 7980,
      "AID": 7981,
      "903": 7982,
      "Ġfiltering": 7983,
      "ENV": 7984,
      "ĠQu": 7985,
      "Ġhitting": 7986,
      "Ġincreased": 7987,
      "Ġmaterials": 7988,
      "Ġcompiler": 7989,
      "Ġdivision": 7990,
      "Ġinstantiate": 7991,
      "ĠRecord": 7992,
      "Ġsampling": 7993,
      "Ġrejected": 7994,
      "Ġcrashed": 7995,
      "Uniform": 7996,
      "Ġenhance": 7997,
      "Ġbeginning": 7998,
      "!--": 7999,
      ".*": 8000,
      ".{": 8001,
      "<|": 8002,
      "Ambient": 8003,
      "PY": 8004,
      "Warning": 8005,
      "big": 8006,
      "dri": 8007,
      "iet": 8008,
      "na": 8009,
      "ose": 8010,
      "pus": 8011,
      "paper": 8012,
      "pages": 8013,
      "when": 8014,
      "warning": 8015,
      "|>": 8016,
      "Ġaway": 8017,
      "still": 8018,
      "Ġfrozen": 8019,
      "depth": 8020,
      "Ġreaches": 8021,
      "ĠIde": 8022,
      "Ġstarter": 8023,
      "igning": 8024,
      "threshold": 8025,
      "reserve": 8026,
      "Ġscales": 8027,
      "000079": 8028,
      "00002000": 8029,
      "Ġoutlined": 8030,
      "soc": 8031,
      "Ġcodex": 8032,
      "lict": 8033,
      "Ġrecy": 8034,
      "Ġrecipe": 8035,
      "There": 8036,
      "ĠWindow": 8037,
      "ERVAL": 8038,
      "Ġarri": 8039,
      "Ġelif": 8040,
      "Ġreferencing": 8041,
      "Ġsurv": 8042,
      "Ġflagged": 8043,
      "frac": 8044,
      "Ġchars": 8045,
      "overlay": 8046,
      "Ġgreet": 8047,
      "webkit": 8048,
      "Ġextensive": 8049,
      "Ġencoding": 8050,
      "contin": 8051,
      "Ġcollabor": 8052,
      "Ġparticle": 8053,
      "Ġdimension": 8054,
      "Ġpinned": 8055,
      "INTERVAL": 8056,
      "Ġdataclasses": 8057,
      "Ġeffectively": 8058,
      "optimizer": 8059,
      "Ġgrowth": 8060,
      "Ġindependent": 8061,
      "Traceback": 8062,
      "STRIKE": 8063,
      "goto": 8064,
      "00007930": 8065,
      "ĠWindows": 8066,
      ":\\\",": 8067,
      "ANT": 8068,
      "CUDA": 8069,
      "GUF": 8070,
      "Player": 8071,
      "`**": 8072,
      "catch": 8073,
      "fid": 8074,
      "lands": 8075,
      "names": 8076,
      "scal": 8077,
      "wc": 8078,
      "rele": 8079,
      "Ġpan": 8080,
      "Ġblog": 8081,
      "Ġmv": 8082,
      "Ġrect": 8083,
      "Ġnudges": 8084,
      "Ġ(\"": 8085,
      "vector": 8086,
      "Ġring": 8087,
      "undant": 8088,
      "ĠSTE": 8089,
      "ĠSFX": 8090,
      "ĠClo": 8091,
      "Ġconflict": 8092,
      "Ġnoting": 8093,
      "ĠGGUF": 8094,
      "STATE": 8095,
      "ĠEOS": 8096,
      "Ġnois": 8097,
      "ĠDone": 8098,
      "ĠLe": 8099,
      "Ġcompleting": 8100,
      "tailOnly": 8101,
      "Ġvisually": 8102,
      "Ġvisibility": 8103,
      "LED": 8104,
      "Ġtemp": 8105,
      "Ġregular": 8106,
      "Ġsaves": 8107,
      "clean": 8108,
      "utils": 8109,
      "Ġscaled": 8110,
      "Ġexported": 8111,
      "animate": 8112,
      "animations": 8113,
      "quantile": 8114,
      "Ġreceives": 8115,
      "Ġdetected": 8116,
      "Ġpackages": 8117,
      "iiii": 8118,
      "ĠTaskUpdate": 8119,
      "Ġdescribes": 8120,
      "Ġlacks": 8121,
      "Ġcells": 8122,
      "Ġexercised": 8123,
      "Ġaccompl": 8124,
      "implementation": 8125,
      "Ġrecommend": 8126,
      "Ġcalculations": 8127,
      "Ġasymmetric": 8128,
      "\"/": 8129,
      ")));\\": 8130,
      "/<": 8131,
      "Auto": 8132,
      "Group": 8133,
      "Top": 8134,
      "aus": 8135,
      "ixture": 8136,
      "qm": 8137,
      "sure": 8138,
      "Ġwire": 8139,
      "Ġpid": 8140,
      "Ġbind": 8141,
      "Ġmes": 8142,
      "aring": 8143,
      "Ġreach": 8144,
      "Ġinfinite": 8145,
      "Ġ125": 8146,
      "oted": 8147,
      "Ġcomes": 8148,
      "quare": 8149,
      "Ġ260": 8150,
      "Ġassoc": 8151,
      "odes": 8152,
      "Ġrespawn": 8153,
      "ĠReturn": 8154,
      "ĠReturns": 8155,
      "ĠRMSNorm": 8156,
      "Ġnoted": 8157,
      "Ġbackpressure": 8158,
      "Ġentities": 8159,
      "Ġktok": 8160,
      "Ġenemy": 8161,
      "Ġhot": 8162,
      "Ġspheres": 8163,
      "then": 8164,
      "players": 8165,
      "Static": 8166,
      "Ġmatrix": 8167,
      "\\\"])\\": 8168,
      "started": 8169,
      "icons": 8170,
      "Ġremoves": 8171,
      "Ġfinding": 8172,
      "Ġattached": 8173,
      "Ġscalar": 8174,
      "Enabled": 8175,
      "Ġcompilation": 8176,
      "â£¤": 8177,
      "Ġassignment": 8178,
      "Ġparticles": 8179,
      "Ġaccurately": 8180,
      "Indexer": 8181,
      "Ġannotation": 8182,
      "Controls": 8183,
      "Ġsynthes": 8184,
      "ernal": 8185,
      "ĠCodex": 8186,
      "guard": 8187,
      "Tech": 8188,
      "Makefile": 8189,
      "udflare": 8190,
      "fidence": 8191
    },
    "merges": [
      [
        "Ġ",
        "Ġ"
      ],
      [
        "Ġ",
        "t"
      ],
      [
        "i",
        "n"
      ],
      [
        "h",
        "e"
      ],
      [
        "Ġ",
        "a"
      ],
      [
        "r",
        "e"
      ],
      [
        "Ġt",
        "he"
      ],
      [
        "ĠĠ",
        "ĠĠ"
      ],
      [
        "o",
        "n"
      ],
      [
        "Ġ",
        "s"
      ],
      [
        "e",
        "r"
      ],
      [
        "a",
        "t"
      ],
      [
        "Ġ",
        "c"
      ],
      [
        "e",
        "n"
      ],
      [
        "s",
        "t"
      ],
      [
        "o",
        "r"
      ],
      [
        "i",
        "t"
      ],
      [
        "Ġ",
        "f"
      ],
      [
        "e",
        "d"
      ],
      [
        "in",
        "g"
      ],
      [
        "n",
        "d"
      ],
      [
        "l",
        "e"
      ],
      [
        "Ġ",
        "w"
      ],
      [
        "a",
        "l"
      ],
      [
        "Ġ",
        "p"
      ],
      [
        "e",
        "s"
      ],
      [
        "â",
        "Ģ"
      ],
      [
        "i",
        "s"
      ],
      [
        "Ġ",
        "b"
      ],
      [
        "Ġt",
        "o"
      ],
      [
        "Ġ",
        "m"
      ],
      [
        "r",
        "o"
      ],
      [
        "i",
        "on"
      ],
      [
        "a",
        "r"
      ],
      [
        "Ġ",
        "`"
      ],
      [
        "d",
        "e"
      ],
      [
        "c",
        "t"
      ],
      [
        "Ġ",
        "re"
      ],
      [
        "ĠĠĠĠ",
        "ĠĠĠĠ"
      ],
      [
        "a",
        "n"
      ],
      [
        "Ġ",
        "l"
      ],
      [
        "Ġ",
        "n"
      ],
      [
        "u",
        "t"
      ],
      [
        "Ġ",
        "in"
      ],
      [
        "en",
        "t"
      ],
      [
        "Ġt",
        "h"
      ],
      [
        "Ġa",
        "nd"
      ],
      [
        "Ġ",
        "("
      ],
      [
        "Ġ",
        "I"
      ],
      [
        "Ġ",
        "o"
      ],
      [
        "l",
        "l"
      ],
      [
        "Ġ",
        "e"
      ],
      [
        "a",
        "s"
      ],
      [
        "ĠĠ",
        "Ġ"
      ],
      [
        "i",
        "c"
      ],
      [
        "0",
        "0"
      ],
      [
        "u",
        "n"
      ],
      [
        "\\",
        "\""
      ],
      [
        "Ġ",
        "d"
      ],
      [
        "u",
        "s"
      ],
      [
        "o",
        "m"
      ],
      [
        "Ġs",
        "t"
      ],
      [
        "e",
        "t"
      ],
      [
        "i",
        "m"
      ],
      [
        "a",
        "c"
      ],
      [
        "h",
        "o"
      ],
      [
        "a",
        "d"
      ],
      [
        "Ġ",
        "T"
      ],
      [
        "Ġ",
        "="
      ],
      [
        "-",
        "-"
      ],
      [
        "Ġ",
        "is"
      ],
      [
        "Ġc",
        "on"
      ],
      [
        "l",
        "y"
      ],
      [
        "v",
        "e"
      ],
      [
        "Ġth",
        "at"
      ],
      [
        "u",
        "r"
      ],
      [
        "Ġn",
        "e"
      ],
      [
        "o",
        "l"
      ],
      [
        "i",
        "g"
      ],
      [
        ";",
        "\\"
      ],
      [
        "Ġ",
        "g"
      ],
      [
        "p",
        "t"
      ],
      [
        "a",
        "m"
      ],
      [
        "â",
        "Ķ"
      ],
      [
        "v",
        "er"
      ],
      [
        "e",
        "st"
      ],
      [
        "i",
        "f"
      ],
      [
        "l",
        "o"
      ],
      [
        "Ġ",
        "r"
      ],
      [
        "at",
        "e"
      ],
      [
        "t",
        "h"
      ],
      [
        "u",
        "l"
      ],
      [
        "e",
        "p"
      ],
      [
        "o",
        "de"
      ],
      [
        "s",
        "e"
      ],
      [
        "âĶ",
        "Ģ"
      ],
      [
        "c",
        "h"
      ],
      [
        "Ġ",
        "\""
      ],
      [
        "Ġf",
        "or"
      ],
      [
        "âĶĢ",
        "âĶĢ"
      ],
      [
        "at",
        "ion"
      ],
      [
        "al",
        "l"
      ],
      [
        "Ġe",
        "x"
      ],
      [
        "Ġl",
        "o"
      ],
      [
        "Ġo",
        "f"
      ],
      [
        "r",
        "i"
      ],
      [
        "Ġ",
        "h"
      ],
      [
        "i",
        "l"
      ],
      [
        "ĠĠĠĠĠĠĠĠ",
        "ĠĠĠĠĠĠĠĠ"
      ],
      [
        "Ġw",
        "it"
      ],
      [
        "a",
        "g"
      ],
      [
        "a",
        "nd"
      ],
      [
        "Ġ",
        "1"
      ],
      [
        "k",
        "e"
      ],
      [
        "Ġf",
        "i"
      ],
      [
        "âĢ",
        "Ļ"
      ],
      [
        "a",
        "in"
      ],
      [
        "âĢ",
        "ĳ"
      ],
      [
        "Ġ",
        "-"
      ],
      [
        "p",
        "e"
      ],
      [
        "i",
        "ll"
      ],
      [
        "o",
        "w"
      ],
      [
        "Ġwit",
        "h"
      ],
      [
        "Ġb",
        "e"
      ],
      [
        "i",
        "d"
      ],
      [
        "Ġ",
        "it"
      ],
      [
        "a",
        "p"
      ],
      [
        "o",
        "t"
      ],
      [
        "Ġc",
        "om"
      ],
      [
        "c",
        "e"
      ],
      [
        "Ġ",
        "âĢ"
      ],
      [
        "in",
        "t"
      ],
      [
        "c",
        "k"
      ],
      [
        "p",
        "l"
      ],
      [
        "x",
        "t"
      ],
      [
        "Ġ",
        "us"
      ],
      [
        "t",
        "o"
      ],
      [
        "a",
        "y"
      ],
      [
        "ct",
        "ion"
      ],
      [
        "Ġp",
        "ro"
      ],
      [
        "ĠT",
        "he"
      ],
      [
        "es",
        "s"
      ],
      [
        "Ġ",
        "on"
      ],
      [
        "Ġa",
        "n"
      ],
      [
        "i",
        "st"
      ],
      [
        "=",
        "="
      ],
      [
        "t",
        "er"
      ],
      [
        "p",
        "ut"
      ],
      [
        ")",
        ";\\"
      ],
      [
        "Ġ",
        "0"
      ],
      [
        "*",
        "*"
      ],
      [
        "Ġ",
        "de"
      ],
      [
        "m",
        "ent"
      ],
      [
        "re",
        "s"
      ],
      [
        "Ġ",
        "{"
      ],
      [
        "h",
        "t"
      ],
      [
        "u",
        "p"
      ],
      [
        "Ġ",
        "v"
      ],
      [
        "in",
        "e"
      ],
      [
        "Ġs",
        "e"
      ],
      [
        "q",
        "u"
      ],
      [
        "\"",
        ":"
      ],
      [
        "t",
        "e"
      ],
      [
        ")",
        "."
      ],
      [
        "or",
        "t"
      ],
      [
        "Ġ",
        "2"
      ],
      [
        "p",
        "y"
      ],
      [
        "ĠĠĠĠ",
        "ĠĠĠ"
      ],
      [
        "Ġs",
        "ho"
      ],
      [
        "u",
        "nd"
      ],
      [
        "--",
        "--"
      ],
      [
        "Ġr",
        "un"
      ],
      [
        "ac",
        "k"
      ],
      [
        "in",
        "k"
      ],
      [
        "Ġa",
        "s"
      ],
      [
        "ul",
        "d"
      ],
      [
        "Ġfi",
        "le"
      ],
      [
        "Ġt",
        "r"
      ],
      [
        "ag",
        "e"
      ],
      [
        "im",
        "p"
      ],
      [
        "Ġ",
        "or"
      ],
      [
        "Ġw",
        "ill"
      ],
      [
        "p",
        "o"
      ],
      [
        "<",
        "/"
      ],
      [
        "at",
        "h"
      ],
      [
        "Ġs",
        "c"
      ],
      [
        "Ġt",
        "est"
      ],
      [
        "f",
        "f"
      ],
      [
        "i",
        "ve"
      ],
      [
        "u",
        "re"
      ],
      [
        "i",
        "r"
      ],
      [
        "o",
        "re"
      ],
      [
        "ig",
        "ht"
      ],
      [
        "âĶĢâĶĢ",
        "âĶĢâĶĢ"
      ],
      [
        "Ġa",
        "l"
      ],
      [
        "er",
        "s"
      ],
      [
        "ro",
        "m"
      ],
      [
        "a",
        "b"
      ],
      [
        "Ġ",
        "}"
      ],
      [
        "Ġne",
        "ed"
      ],
      [
        "Ġc",
        "all"
      ],
      [
        "o",
        "d"
      ],
      [
        "`",
        ","
      ],
      [
        "ac",
        "e"
      ],
      [
        "en",
        "d"
      ],
      [
        "st",
        "ep"
      ],
      [
        "ur",
        "n"
      ],
      [
        "c",
        "l"
      ],
      [
        "m",
        "and"
      ],
      [
        "u",
        "m"
      ],
      [
        "t",
        "s"
      ],
      [
        "Ġth",
        "is"
      ],
      [
        "am",
        "e"
      ],
      [
        "Ġ",
        "S"
      ],
      [
        "en",
        "s"
      ],
      [
        "Ġw",
        "h"
      ],
      [
        "a",
        "ct"
      ],
      [
        "u",
        "e"
      ],
      [
        "c",
        "on"
      ],
      [
        "ode",
        "l"
      ],
      [
        "th",
        "ink"
      ],
      [
        "Ġ",
        "A"
      ],
      [
        "Ġne",
        "w"
      ],
      [
        "Ġ",
        "\\\""
      ],
      [
        "Ġa",
        "d"
      ],
      [
        "ĠĠĠĠ",
        "Ġ"
      ],
      [
        "t",
        "r"
      ],
      [
        "u",
        "st"
      ],
      [
        "Ġ",
        "'"
      ],
      [
        "he",
        "r"
      ],
      [
        "Ġcon",
        "st"
      ],
      [
        "Ġ",
        "C"
      ],
      [
        "Ġc",
        "h"
      ],
      [
        "`",
        "`"
      ],
      [
        "`",
        "."
      ],
      [
        ")",
        ","
      ],
      [
        "as",
        "k"
      ],
      [
        "ri",
        "pt"
      ],
      [
        "Ġm",
        "e"
      ],
      [
        "j",
        "s"
      ],
      [
        "00",
        "00"
      ],
      [
        "re",
        "n"
      ],
      [
        ")",
        "\\"
      ],
      [
        "e",
        "w"
      ],
      [
        "Ġsho",
        "uld"
      ],
      [
        "3",
        "0"
      ],
      [
        "it",
        "e"
      ],
      [
        "Ġlo",
        "g"
      ],
      [
        "Ġ",
        "if"
      ],
      [
        "Ġ",
        "/"
      ],
      [
        "a",
        "il"
      ],
      [
        "ĠT",
        "h"
      ],
      [
        "Ġa",
        "t"
      ],
      [
        "ĠĠĠĠĠĠĠĠĠĠĠĠĠĠĠĠ",
        "ĠĠĠĠĠĠĠĠĠĠĠĠĠĠĠĠ"
      ],
      [
        "i",
        "z"
      ],
      [
        "Ġo",
        "ut"
      ],
      [
        "Ġre",
        "s"
      ],
      [
        "c",
        "om"
      ],
      [
        "he",
        "ck"
      ],
      [
        "o",
        "ut"
      ],
      [
        "as",
        "s"
      ],
      [
        "o",
        "p"
      ],
      [
        "i",
        "re"
      ],
      [
        "i",
        "v"
      ],
      [
        "Ġ",
        "j"
      ],
      [
        "u",
        "g"
      ],
      [
        "Ġ",
        "B"
      ],
      [
        "ar",
        "d"
      ],
      [
        "N",
        "T"
      ],
      [
        "âĢ",
        "Ŀ"
      ],
      [
        "e",
        "ct"
      ],
      [
        "i",
        "le"
      ],
      [
        "Ġd",
        "o"
      ],
      [
        "Ġc",
        "an"
      ],
      [
        "p",
        "p"
      ],
      [
        "Ġs",
        "o"
      ],
      [
        "g",
        "en"
      ],
      [
        "an",
        "g"
      ],
      [
        "ĠâĢ",
        "ľ"
      ],
      [
        "al",
        "ly"
      ],
      [
        "Ġus",
        "er"
      ],
      [
        "Ġw",
        "he"
      ],
      [
        "u",
        "d"
      ],
      [
        "e",
        "l"
      ],
      [
        "Ġto",
        "ol"
      ],
      [
        "Ġ",
        "he"
      ],
      [
        "Ġ",
        "P"
      ],
      [
        "r",
        "ing"
      ],
      [
        "Ġ",
        "*"
      ],
      [
        "Ġcon",
        "t"
      ],
      [
        "ro",
        "und"
      ],
      [
        "un",
        "ction"
      ],
      [
        "ar",
        "t"
      ],
      [
        "Ġ",
        "+"
      ],
      [
        "s",
        "s"
      ],
      [
        "an",
        "t"
      ],
      [
        "or",
        "m"
      ],
      [
        "Ġ",
        "M"
      ],
      [
        "Ġp",
        "l"
      ],
      [
        "Ġan",
        "y"
      ],
      [
        "to",
        "ol"
      ],
      [
        "\"",
        ","
      ],
      [
        "Ġ",
        "up"
      ],
      [
        "at",
        "ed"
      ],
      [
        "Ġcon",
        "f"
      ],
      [
        "Ġa",
        "re"
      ],
      [
        "Ġre",
        "t"
      ],
      [
        "\\",
        "\\"
      ],
      [
        "s",
        "o"
      ],
      [
        "Ġ",
        "ver"
      ],
      [
        "u",
        "b"
      ],
      [
        "e",
        "m"
      ],
      [
        "Ġ",
        "imp"
      ],
      [
        "Ġst",
        "ep"
      ],
      [
        "Ġad",
        "d"
      ],
      [
        "âĢ",
        "¯"
      ],
      [
        "v",
        "i"
      ],
      [
        "p",
        "er"
      ],
      [
        "Ġ",
        "le"
      ],
      [
        "y",
        "t"
      ],
      [
        "Ġ",
        "|"
      ],
      [
        "on",
        "e"
      ],
      [
        "lo",
        "ck"
      ],
      [
        "as",
        "h"
      ],
      [
        "Ġf",
        "rom"
      ],
      [
        "Ġm",
        "odel"
      ],
      [
        "S",
        "S"
      ],
      [
        "Ġcom",
        "mand"
      ],
      [
        "u",
        "ll"
      ],
      [
        "Ġc",
        "o"
      ],
      [
        "Ġ",
        "3"
      ],
      [
        "S",
        "T"
      ],
      [
        "Ġc",
        "ode"
      ],
      [
        "Ġ",
        "R"
      ],
      [
        "Ġm",
        "a"
      ],
      [
        "a",
        "ve"
      ],
      [
        "p",
        "le"
      ],
      [
        "Ġne",
        "xt"
      ],
      [
        "Ġ{",
        "\\"
      ],
      [
        "Ġret",
        "urn"
      ],
      [
        "r",
        "c"
      ],
      [
        ",",
        "\\"
      ],
      [
        "a",
        "pt"
      ],
      [
        "ic",
        "h"
      ],
      [
        "Ġ",
        "<"
      ],
      [
        "ain",
        "ing"
      ],
      [
        "ĠTh",
        "is"
      ],
      [
        "or",
        "y"
      ],
      [
        "Ġb",
        "ut"
      ],
      [
        "as",
        "e"
      ],
      [
        "Ġ",
        "5"
      ],
      [
        "im",
        "e"
      ],
      [
        "==",
        "=="
      ],
      [
        "f",
        "ter"
      ],
      [
        "(",
        ")"
      ],
      [
        "2",
        "0"
      ],
      [
        "l",
        "i"
      ],
      [
        "om",
        "e"
      ],
      [
        "s",
        "er"
      ],
      [
        "Ġc",
        "heck"
      ],
      [
        "g",
        "et"
      ],
      [
        "Ġs",
        "et"
      ],
      [
        "Ġw",
        "or"
      ],
      [
        "t",
        "est"
      ],
      [
        "m",
        "in"
      ],
      [
        "ren",
        "t"
      ],
      [
        "f",
        "ore"
      ],
      [
        "a",
        "st"
      ],
      [
        "Ġ",
        "N"
      ],
      [
        "re",
        "e"
      ],
      [
        "re",
        "ad"
      ],
      [
        "r",
        "or"
      ],
      [
        "Ġout",
        "put"
      ],
      [
        "Ġn",
        "ot"
      ],
      [
        "Ġ",
        "y"
      ],
      [
        "t",
        "her"
      ],
      [
        "at",
        "ch"
      ],
      [
        "c",
        "ess"
      ],
      [
        "----",
        "----"
      ],
      [
        "ĠâĢ",
        "Ķ"
      ],
      [
        "ab",
        "le"
      ],
      [
        "o",
        "k"
      ],
      [
        "an",
        "e"
      ],
      [
        "Ġin",
        "put"
      ],
      [
        "il",
        "d"
      ],
      [
        "ul",
        "t"
      ],
      [
        "es",
        "c"
      ],
      [
        "e",
        "xt"
      ],
      [
        "âĶĢâĶĢâĶĢâĶĢ",
        "âĶĢâĶĢâĶĢâĶĢ"
      ],
      [
        "Ġ",
        "G"
      ],
      [
        "if",
        "ic"
      ],
      [
        "u",
        "le"
      ],
      [
        "ho",
        "s"
      ],
      [
        "pl",
        "ace"
      ],
      [
        "=",
        "{"
      ],
      [
        "Ġj",
        "ust"
      ],
      [
        "Ġ",
        "ke"
      ],
      [
        "ST",
        "A"
      ],
      [
        "yt",
        "hos"
      ],
      [
        "Ġw",
        "e"
      ],
      [
        "Ġp",
        "re"
      ],
      [
        "Ġ",
        "4"
      ],
      [
        "Ġ",
        "U"
      ],
      [
        "A",
        "SS"
      ],
      [
        "it",
        "ion"
      ],
      [
        "Ġf",
        "unction"
      ],
      [
        "en",
        "c"
      ],
      [
        "Ġp",
        "o"
      ],
      [
        "(",
        "'"
      ],
      [
        "it",
        "y"
      ],
      [
        "f",
        "orm"
      ],
      [
        "Ġ",
        "ed"
      ],
      [
        "ac",
        "h"
      ],
      [
        "j",
        "ect"
      ],
      [
        "i",
        "de"
      ],
      [
        "Ġthe",
        "n"
      ],
      [
        "Ġ",
        "E"
      ],
      [
        ":",
        "\\"
      ],
      [
        "us",
        "e"
      ],
      [
        "Ġ(",
        "`"
      ],
      [
        "Ġ",
        "F"
      ],
      [
        "a",
        "w"
      ],
      [
        "f",
        "in"
      ],
      [
        "Ġl",
        "ine"
      ],
      [
        "ASS",
        "I"
      ],
      [
        "STA",
        "NT"
      ],
      [
        "ASSI",
        "STANT"
      ],
      [
        "Ġb",
        "ack"
      ],
      [
        ".",
        "."
      ],
      [
        "at",
        "a"
      ],
      [
        "Ġa",
        "ll"
      ],
      [
        "'",
        ","
      ],
      [
        ")",
        ";"
      ],
      [
        "i",
        "es"
      ],
      [
        "Ġs",
        "er"
      ],
      [
        "Ġ}",
        "\\"
      ],
      [
        "Ġa",
        "g"
      ],
      [
        "Ġre",
        "c"
      ],
      [
        "=",
        "\\\""
      ],
      [
        "Ġb",
        "y"
      ],
      [
        "ĠĠĠĠĠĠĠĠ",
        "ĠĠĠ"
      ],
      [
        "ar",
        "y"
      ],
      [
        "Ġed",
        "it"
      ],
      [
        "Ġn",
        "ow"
      ],
      [
        "h",
        "ome"
      ],
      [
        "e",
        "x"
      ],
      [
        "t",
        "ask"
      ],
      [
        "Ġwh",
        "ich"
      ],
      [
        "Ġa",
        "pp"
      ],
      [
        "Ġb",
        "lock"
      ],
      [
        "if",
        "y"
      ],
      [
        "e",
        "c"
      ],
      [
        "Ġ",
        "qu"
      ],
      [
        "pe",
        "ct"
      ],
      [
        "Ġwor",
        "k"
      ],
      [
        "m",
        "pt"
      ],
      [
        "y",
        "pe"
      ],
      [
        "Ġp",
        "er"
      ],
      [
        "Ġ",
        "["
      ],
      [
        "Ġch",
        "ang"
      ],
      [
        "in",
        "d"
      ],
      [
        "T",
        "he"
      ],
      [
        "``",
        "`"
      ],
      [
        "ire",
        "ct"
      ],
      [
        "7",
        "6"
      ],
      [
        "Ġlog",
        "ic"
      ],
      [
        "Ġm",
        "od"
      ],
      [
        "iz",
        "e"
      ],
      [
        "f",
        "ile"
      ],
      [
        "r",
        "u"
      ],
      [
        "Ġc",
        "l"
      ],
      [
        "u",
        "de"
      ],
      [
        "Ġs",
        "u"
      ],
      [
        "l",
        "ane"
      ],
      [
        "ĠB",
        "ash"
      ],
      [
        "={",
        "\""
      ],
      [
        "n",
        "ing"
      ],
      [
        "Ġal",
        "so"
      ],
      [
        "b",
        "u"
      ],
      [
        "Ġ",
        "H"
      ],
      [
        "Ġc",
        "ur"
      ],
      [
        "a",
        "v"
      ],
      [
        "l",
        "int"
      ],
      [
        "p",
        "h"
      ],
      [
        "m",
        "d"
      ],
      [
        "read",
        "y"
      ],
      [
        "Ġex",
        "act"
      ],
      [
        "Ġis",
        "s"
      ],
      [
        "Ġp",
        "ar"
      ],
      [
        "i",
        "p"
      ],
      [
        "Ġl",
        "i"
      ],
      [
        "ent",
        "s"
      ],
      [
        "Ġs",
        "h"
      ],
      [
        "ess",
        "age"
      ],
      [
        "Ġ",
        "un"
      ],
      [
        "te",
        "xt"
      ],
      [
        "he",
        "d"
      ],
      [
        "Ġo",
        "ver"
      ],
      [
        "ig",
        "n"
      ],
      [
        "T",
        "h"
      ],
      [
        "r",
        "un"
      ],
      [
        "Ġre",
        "ad"
      ],
      [
        "ar",
        "k"
      ],
      [
        "a",
        "it"
      ],
      [
        "st",
        "ring"
      ],
      [
        "00",
[...]
